[PAD]
[UNK]
[CLS]
[SEP]
[MASK]
!
"
#
$
%
&
'
(
)
*
+
,
-
.
/
0
1
2
3
4
5
6
7
8
9
:
;
<
=
>
?
@
A
B
C
D
E
F
G
H
I
J
K
L
M
N
O
P
Q
R
S
T
U
V
W
X
Y
Z
[
\
]
^
_
`
a
b
c
d
e
f
g
h
i
j
k
l
m
n
o
p
q
r
s
t
u
v
w
x
y
z
{
|
}
~
¡
£
¥
¨
°
´
·
×
÷
ķ
ŏ
ʺ
˂
˃
ˊ
ˋ
̀
́
̄
̆
̈
̊
̌
̎
̐
̑
̣
̤
̥
̫
̮
̴
̵
̶
̷
̼
͂
͈
͓
͙
ω
֊
ם
و
٩
ु
ू
॓
॔
੭
લ
ા
ો
ૢ
ఇ
ෆ
ั
๑
ღ
ᄀ
ᄂ
ᄃ
ᄉ
ᄋ
ᄌ
ᆞ
ᆢ
ᐛ
ᕕ
ᕗ
ᗜ
ᴗ
ᴥ
ᵒ
ᵕ
᷄
᷅
—
‘
’
“
”
•
‥
…
‹
›
※
‿
⁵
⁸
⁼
⁾
₍
₩
€
⃕
→
∇
∗
∶
≤
≥
≦
≧
⌓
⏺
╹
■
□
▶
▽
◇
●
◞
◟
◠
◡
★
☆
☠
☹
☺
☻
♀
♂
♡
♥
♧
♬
♿
⚡
✧
✨
✺
✿
❀
❗
❛
❣
❤
➡
〰
ゞ
・
ヾ
ㄱ
ㄲ
ㄳ
ㄴ
ㄵ
ㄶ
ㄷ
ㄸ
ㄹ
ㄺ
ㄻ
ㄼ
ㄽ
ㄾ
ㄿ
ㅀ
ㅁ
ㅂ
ㅃ
ㅄ
ㅅ
ㅆ
ㅇ
ㅈ
ㅉ
ㅊ
ㅋ
ㅌ
ㅍ
ㅎ
ㅏ
ㅐ
ㅑ
ㅒ
ㅓ
ㅔ
ㅕ
ㅖ
ㅗ
ㅘ
ㅙ
ㅚ
ㅛ
ㅜ
ㅝ
ㅞ
ㅟ
ㅠ
ㅡ
ㅢ
ㅣ
ㆀ
ㆍ
㉮
㉰
中
人
大
寸
殺
王
美
鐵
ꇴ
ꈍ
꙼
가
각
간
갆
갇
갈
갉
감
갑
값
갓
갔
강
갖
갗
갘
같
갚
갛
개
객
갠
갤
갬
갭
갮
갯
갰
갱
갲
갵
갷
갸
갹
걀
걈
걋
걍
걑
걓
걔
걘
거
걱
걳
건
걵
걷
걸
걺
검
겁
것
겄
겅
겆
겇
겈
겉
겊
겋
게
겍
겎
겐
겔
겜
겝
겟
겠
겡
겣
겤
겧
겨
격
겪
견
겯
결
겳
겸
겹
겻
겼
경
겿
곁
곃
계
곈
곗
곘
고
곡
곤
곦
곧
골
곪
곯
곰
곱
곳
공
곶
곷
곸
곺
곻
과
곽
관
괂
괃
괄
괌
괏
광
괖
괘
괜
괝
괞
괨
괭
괮
괰
괴
괷
괸
괺
굉
교
굑
굗
굡
굣
굥
굩
구
국
굯
군
굳
굴
굵
굶
굼
굽
굿
궁
궂
궃
궄
궅
궆
궇
궈
권
궙
궛
궜
궤
귀
귄
귓
귕
귖
규
귝
균
귣
귤
귭
귯
귱
귶
그
극
귻
근
귽
귿
글
긁
긆
긇
금
급
긊
긋
긌
긍
긎
긑
긒
긓
긔
긕
긘
긛
긜
긤
긧
긩
긪
기
긱
긳
긴
긶
긷
길
긺
김
깁
깂
깃
깄
깅
깆
깇
깈
깉
깊
깋
까
깍
깎
깐
깓
깔
깕
깖
깜
깝
깞
깟
깠
깡
깢
깤
깥
깨
깬
깰
깸
깹
깻
깼
깽
깾
꺄
꺅
꺌
꺘
꺠
꺼
꺽
꺾
껀
껄
껌
껍
껏
껐
껑
껖
께
껜
껩
껫
껬
껭
껱
껴
꼄
꼇
꼈
꼐
꼬
꼭
꼰
꼴
꼼
꼽
꼿
꽁
꽂
꽃
꽈
꽉
꽊
꽐
꽝
꽤
꽥
꾀
꾜
꾱
꾸
꾹
꾼
꾿
꿀
꿇
꿈
꿉
꿋
꿌
꿍
꿎
꿑
꿔
꿘
꿧
꿨
꿰
뀌
뀐
뀔
뀜
뀝
뀟
뀠
뀨
뀰
끂
끄
끅
끈
끊
끋
끌
끍
끓
끔
끕
끗
끘
끙
끝
끠
끱
끼
끽
낀
낂
낄
낌
낍
낏
낑
낒
나
낙
낚
난
낝
낞
낟
날
낡
낣
남
납
낫
났
낭
낮
낯
낰
낱
낲
낳
내
낵
낸
낼
냄
냅
냇
냈
냉
냋
냍
냏
냐
냑
냔
냘
냛
냠
냣
냥
냦
냩
냬
너
넉
넌
넎
넏
널
넑
넒
넓
넖
넘
넙
넚
넛
넜
넝
넞
넢
넣
네
넥
넨
넫
넬
넴
넵
넷
넸
넹
넺
넽
넾
넿
녀
녁
년
념
녑
녓
녔
녕
녖
녘
녜
노
녹
논
녾
녿
놀
놂
놈
놉
놋
농
놎
놑
높
놓
놔
놘
놜
놤
놧
놨
놯
놰
뇄
뇌
뇠
뇨
뇩
뇬
뇯
뇸
뇹
뇽
뇾
뇿
눃
누
눅
눈
눊
눌
눔
눕
눗
눙
눛
눜
눝
눞
눠
눤
눳
눴
눼
뉘
뉜
뉠
뉴
뉸
뉺
뉻
뉼
늄
늉
늊
늋
늌
늍
늏
느
늑
늒
늓
는
늕
늖
늗
늘
늙
늜
늟
늠
늡
늢
늣
능
늦
늧
늨
늩
늪
늫
늬
늭
늴
늿
닂
니
닉
닊
닌
닏
닐
닓
님
닙
닚
닛
닜
닝
닞
닟
닠
닢
닣
다
닥
닦
단
닫
달
닭
닮
닲
닳
담
답
닷
당
닺
닻
닼
닽
닾
닿
대
댁
댄
댇
댈
댐
댑
댓
댔
댕
댖
댛
댜
댝
댠
댤
댬
댱
댴
댸
덌
더
덕
덖
던
덛
덜
덟
덤
덥
덧
덩
덪
덫
덬
덮
덯
데
덱
덴
덷
델
뎀
뎁
뎃
뎄
뎅
뎆
뎇
뎈
뎌
뎍
뎓
뎔
뎟
뎠
뎡
뎥
뎦
뎨
도
독
돇
돈
돋
돌
돔
돕
돗
동
돚
돛
돜
돞
돟
돠
돡
돤
돨
돱
돳
돵
돼
됀
됄
됌
됍
됏
됐
됗
되
됙
된
될
됡
됨
됩
됫
됬
됭
됮
됲
됴
됻
둄
둇
둉
둊
둌
두
둑
둓
둔
둗
둘
둜
둠
둡
둣
둥
둦
둨
둬
둳
둿
뒀
뒈
뒤
뒥
뒨
뒷
뒸
뒹
듀
듁
듄
듇
듈
듐
듓
듕
듖
듙
드
득
듟
든
듣
들
듥
듦
듬
듭
듯
듰
등
듲
듴
듵
듷
듸
듹
듻
듼
듿
딀
딉
딋
딎
디
딕
딘
딛
딜
딤
딥
딧
딨
딩
딪
딫
딭
딯
따
딱
딲
딴
딷
딸
땀
땁
땃
땄
땅
땈
땋
때
땍
땐
땓
땔
땜
땟
땠
땡
땨
땽
떄
떈
떔
떙
떠
떡
떢
떤
떨
떪
떫
떯
떰
떱
떲
떳
떴
떵
떻
떼
뗀
뗄
뗌
뗍
뗏
뗐
뗘
뗬
뗴
또
똑
똔
똘
똠
똡
똥
똩
똭
똴
뙇
뚜
뚝
뚞
뚠
뚤
뚥
뚫
뚬
뚯
뚱
뚸
뛌
뛰
뛴
뛸
뜀
뜁
뜌
뜨
뜩
뜬
뜯
뜰
뜷
뜸
뜹
뜻
뜽
뜾
띁
띄
띈
띌
띔
띗
띠
띡
띤
띨
띱
띵
라
락
띿
란
랂
랃
랄
람
랍
랏
랐
랑
랒
랔
랕
랖
랗
래
랙
랜
랟
랠
램
랩
랫
랬
랭
랯
랲
랳
랴
략
랸
랼
럄
럅
럇
럈
량
럊
럍
럎
럏
럐
럤
러
럭
런
럳
럴
럺
럼
럽
럾
럿
렀
렁
렂
렆
렇
레
렉
렌
렐
렘
렙
렛
렜
렝
려
력
렦
련
렫
렬
렴
렵
렷
렸
령
렼
렿
례
롐
롔
로
록
론
롢
롣
롤
롦
롬
롭
롯
롱
롲
롳
롴
롵
롶
롷
롸
롹
롼
뢀
뢈
뢋
뢔
뢪
뢰
뢱
룀
룃
료
룍
룐
룔
룜
룟
룡
룧
루
룩
룬
룰
룲
룸
룹
룻
룽
룾
룿
뤁
뤃
뤄
뤘
뤠
뤼
륑
류
륙
륛
륜
륟
률
륨
륭
륮
륰
륳
르
륵
른
륻
를
륽
름
릅
릇
릉
릊
릋
릍
릎
릏
릐
릡
릫
리
릭
린
릱
릳
릴
릵
릶
릷
림
립
릿
맀
링
맂
맃
맄
맆
맇
마
막
만
맍
많
맏
말
맑
맒
맔
맗
맘
맙
맚
맛
맜
망
맞
맟
맠
맡
맢
맣
매
맥
맨
맪
맫
맬
맴
맵
맷
맸
맹
맺
맽
맿
먀
먄
먕
먖
먗
먜
머
먹
먼
먾
먿
멀
멈
멉
멋
멍
멎
멓
메
멕
멘
멜
멤
멧
멨
멩
며
멱
면
멷
멸
몀
몃
몄
명
몆
몇
몋
몌
몔
모
목
몪
몫
몬
몮
몰
몸
몹
못
몽
몾
뫁
뫂
뫃
뫘
뫠
뫼
뫽
묘
묙
묜
묭
묰
무
묵
묶
문
묻
물
묽
묾
뭀
뭄
뭅
뭇
뭉
뭊
뭍
뭏
뭐
뭔
뭘
뭠
뭡
뭣
뭥
뭬
뭰
뮈
뮌
뮐
뮤
뮥
뮨
뮬
뮴
뮺
뮿
므
믁
믄
믈
믊
믐
믑
믓
믕
믘
믛
믜
믝
믠
믯
미
믹
민
믽
믾
믿
밀
밇
밈
밉
밋
밌
밍
밎
및
밑
밓
바
박
밖
밗
반
밙
받
발
밝
밟
밣
밤
밥
밧
밨
방
밪
밬
밭
배
백
밴
밷
밸
뱀
뱁
뱃
뱅
뱆
뱉
뱌
뱍
뱐
뱔
뱜
뱝
뱡
뱢
뱨
버
벅
벆
벇
번
벋
벌
범
법
벗
벙
벚
벜
벞
벟
베
벡
벤
벨
벱
벳
벴
벵
벶
벼
벽
변
별
볇
볌
볍
볏
볐
병
볒
볕
볖
볘
볠
보
복
볶
본
볻
볼
볽
봄
봅
봇
봉
봊
봌
봍
봎
봏
봐
봑
봔
봡
봣
봤
봥
봨
봫
봬
뵈
뵏
뵐
뵙
뵜
뵤
뵨
뵬
뵴
뵵
뵷
뵺
뵽
부
북
분
붅
붇
불
붉
붋
붎
붐
붑
붓
붕
붗
붙
붚
붛
붜
붯
뷁
뷔
뷰
뷴
뷸
븃
븉
브
븍
븐
븑
븓
블
븜
븝
븞
븟
븡
븢
븣
븤
븥
븧
븨
븬
븻
븽
븾
비
빅
빈
빋
빌
빍
빔
빕
빗
빘
빙
빚
빛
빝
빠
빡
빤
빧
빨
빰
빱
빳
빴
빵
빻
빼
빽
뺀
뺄
뺌
뺍
뺏
뺐
뺑
뺘
뺜
뺨
뺴
뺸
뺼
뻇
뻈
뻐
뻑
뻔
뻗
뻘
뻣
뻤
뻥
뻬
뻭
뻰
뻿
뼈
뼌
뼐
뼘
뼛
뼡
뼤
뽀
뽁
뽂
뽄
뽈
뽋
뽐
뽑
뽓
뽕
뽜
뽝
뾰
뾱
뾲
뿁
뿃
뿅
뿌
뿍
뿐
뿔
뿜
뿝
뿡
뿨
뿩
쀵
쁌
쁘
쁜
쁟
쁠
쁨
쁩
쁭
쁮
쁴
삇
삐
삑
삔
삘
삣
삥
삦
사
삭
삯
산
삲
삳
살
삵
삶
삷
삺
삻
삼
삽
삿
샀
상
샂
샃
샄
샅
샇
새
색
샊
샌
샏
샐
샗
샘
샙
샛
샜
생
샤
샥
샨
샬
샴
샵
샷
샸
샹
샽
샾
섀
섁
섕
서
석
섞
선
섣
설
섩
섬
섭
섮
섯
섰
성
섲
섳
섴
섷
세
섹
센
셀
셅
셈
셉
셋
셌
셍
셒
셔
셕
션
셜
셤
셧
셨
셩
셯
셰
솀
소
속
솎
솏
손
솓
솔
솗
솛
솜
솝
솟
송
솢
솣
솥
솦
솧
솨
솩
솰
솻
솼
쇄
쇈
쇠
쇤
쇱
쇳
쇼
쇽
숀
숄
숌
숍
숏
숐
숑
숒
숖
수
숙
순
숟
술
숨
숩
숫
숬
숭
숮
숯
숱
숲
숳
숴
쉅
쉆
쉐
쉑
쉘
쉡
쉣
쉬
쉭
쉰
쉴
쉼
쉽
슈
슉
슌
슏
슐
슘
슙
슛
슝
슠
스
슥
슨
슩
슫
슬
슭
슴
습
슶
슷
승
슺
슾
슿
싀
싄
싇
싑
싓
시
식
싟
신
싡
싢
싣
실
싨
싫
심
십
싮
싯
싰
싱
싲
싳
싵
싶
싷
싸
싹
싼
쌀
쌈
쌉
쌋
쌌
쌍
쌓
쌔
쌕
쌘
쌤
쌥
쌨
쌩
쌰
쌱
쌴
썅
썡
써
썩
썪
썬
썰
썸
썹
썺
썻
썼
썽
쎄
쎅
쎈
쎌
쎔
쎕
쎗
쎘
쎠
쎼
쏀
쏘
쏙
쏜
쏟
쏠
쏨
쏩
쏫
쏬
쏭
쏴
쏵
쐐
쐬
쑈
쑝
쑤
쑥
쑬
쑴
쑵
쑺
쑽
쒀
쒯
쒸
쒼
쓉
쓔
쓩
쓰
쓱
쓴
쓷
쓸
쓹
쓺
씀
씁
씃
씅
씇
씈
씋
씌
씡
씨
씩
씪
씬
씯
씰
씸
씹
씻
씼
씽
앂
아
악
앆
앇
안
앉
않
앋
알
앍
앎
앏
앓
암
압
앖
앗
았
앙
앚
앛
앜
앝
앞
앟
애
액
앤
앧
앨
앫
앰
앱
앳
앴
앵
앶
앷
야
약
얀
얂
얃
얄
얅
얆
얇
얉
얊
얋
얌
얍
얏
얐
양
얒
얕
얗
얘
얜
얯
어
억
얶
언
얹
얺
얻
얼
얽
얾
엃
엄
업
없
엇
었
엉
엊
엋
엌
엍
엎
엏
에
엑
엔
엘
엠
엡
엣
엤
엥
엩
여
역
엮
엯
연
엳
열
엷
엹
염
엽
엾
엿
였
영
옂
옃
옄
옅
옆
옇
예
옌
옐
옘
옙
옛
옜
옝
옞
오
옥
온
옪
옫
올
옮
옱
옳
옴
옵
옶
옷
옹
옺
옻
옼
옽
옿
와
왁
왂
완
왈
왐
왑
왓
왔
왕
왖
왛
왜
왠
왤
외
왹
왼
욀
욊
욌
욍
요
욕
욗
욘
욙
욛
욜
욠
욤
욥
욧
욨
용
욪
욫
욬
욭
욮
욯
우
욱
운
욷
울
움
웁
웂
웃
웅
웆
웈
웉
웋
워
웍
원
월
웜
웟
웠
웡
웢
웧
웨
웩
웬
웰
웸
웹
웻
위
윅
윈
윌
윔
윕
윗
윘
윙
유
육
윤
윥
율
윯
윰
윳
융
윷
윹
윺
으
윽
은
읁
읂
을
읅
읆
읈
읉
읊
읋
음
읍
읎
읏
읐
응
읒
읓
읔
읕
읖
읗
의
읪
읫
읭
읮
읳
이
익
읶
인
읹
읺
읻
일
읽
잃
임
입
잆
잇
있
잉
잊
잋
잌
잍
잎
잏
자
작
잓
잔
잖
잗
잘
잚
잛
잜
잞
잟
잠
잡
잢
잣
잤
장
잦
잨
잩
잪
잫
재
잭
잰
잳
잴
잼
잽
잿
쟀
쟁
쟅
쟆
쟈
쟌
쟐
쟙
쟛
쟜
쟝
쟞
쟤
저
적
전
젅
젆
젇
절
젊
젋
젏
점
접
젓
젔
정
젖
젘
젛
제
젝
젠
젣
젤
젭
젯
젰
젱
젲
젶
져
젹
젺
젼
젿
졀
졉
졋
졌
졍
졎
졐
졓
졜
조
족
존
졶
졷
졸
졹
졺
좀
좁
좃
좄
종
좆
좇
좉
좊
좋
좌
좍
좔
좝
좠
좡
좧
좬
죄
죈
죋
죌
죙
죚
죠
죤
죧
죨
죰
죳
죴
죵
죺
죻
주
죽
준
줄
줌
줍
줏
중
줒
줓
줕
줗
줘
줙
줜
줠
줫
줬
줮
줰
줳
줸
쥈
쥐
쥑
쥔
쥘
쥠
쥣
쥤
쥬
쥭
쥰
쥴
쥼
쥽
즁
즂
즇
즈
즉
즋
즌
즏
즐
즘
즙
즚
즛
증
즢
즣
즤
즨
즴
지
직
진
짅
짆
짇
질
짊
짎
짐
집
짓
징
짖
짘
짙
짚
짛
짜
짝
짠
짢
짣
짤
짥
짦
짧
짪
짬
짭
짯
짰
짱
짲
짴
째
짹
짼
짿
쨈
쨉
쨋
쨌
쨍
쨔
쨥
쨩
쨰
쩌
쩍
쩐
쩔
쩜
쩝
쩟
쩡
쩨
쪄
쪈
쪗
쪘
쪙
쪼
쪽
쪾
쫀
쫁
쫄
쫇
쫌
쫍
쫏
쫑
쫒
쫓
쫗
쫘
쫙
쫜
쫠
쫩
쫴
쬐
쬠
쬡
쬬
쭁
쭈
쭉
쭌
쭐
쭘
쭙
쭝
쭤
쮓
쮸
쮹
쯔
쯛
쯤
쯥
쯧
쯩
쯰
찌
찍
찎
찐
찓
찔
찗
찜
찝
찟
찡
찢
찧
차
착
찬
찮
찯
찰
찷
참
찹
찻
찼
창
찾
찿
챀
챁
챂
챃
채
책
챌
챔
챕
챗
챙
챛
챝
챠
챡
챤
챦
챨
챱
챳
챵
챻
첕
처
척
천
첞
철
첨
첩
첫
첬
청
첯
첰
첱
첲
첳
체
첵
첸
첼
쳇
쳌
쳐
쳔
쳘
쳣
쳤
쳥
쳨
쳪
쳫
쳬
초
촉
촌
촏
촐
촘
촙
촛
총
촞
촟
촣
촤
촥
촪
촬
촵
쵀
최
쵝
쵲
쵳
쵸
쵹
춍
춏
춓
추
축
춘
춚
출
춤
춥
춧
충
춪
춫
춬
춭
춰
췃
췄
췌
췍
췟
취
췹
츄
츈
츌
츕
츙
츝
츟
츠
측
츤
츨
츰
츲
층
츼
치
칙
친
칞
칟
칠
칡
칧
침
칩
칫
칭
칮
칰
칲
카
칵
칸
칼
캄
캅
캇
캉
캌
캍
캎
캏
캐
캔
캘
캠
캡
캣
캥
캨
캬
캭
캿
컀
컁
컄
커
컥
컨
컬
컴
컵
컷
컸
컹
컼
컽
컿
케
켁
켄
켈
켐
켑
켓
켔
켕
켜
켞
켠
켤
켬
켯
켰
켱
켵
켷
켸
콌
코
콕
콘
콛
콜
콤
콥
콧
콩
콪
콬
콭
콯
콰
콱
콸
쾃
쾅
쾌
쾍
쾐
쾨
쾰
쿄
쿔
쿠
쿡
쿤
쿨
쿰
쿱
쿳
쿵
쿹
쿺
쿼
쿽
퀀
퀄
퀌
퀏
퀗
퀘
퀠
퀴
퀵
퀸
퀼
큐
큑
큔
큘
큨
큩
큪
크
큭
큰
큳
클
큵
큼
큽
큿
킁
킂
킃
킄
킅
킆
킇
킈
킐
키
킥
킨
킬
킴
킵
킷
킸
킹
킼
타
탁
탃
탄
탆
탇
탈
탐
탑
탓
탔
탕
탗
탘
탙
탚
탛
태
택
탠
탢
탣
탤
탬
탭
탯
탱
탲
탳
탴
탵
탸
탹
탼
턋
턍
턏
턑
터
턱
턴
털
텀
텁
텃
텄
텅
텆
텇
텈
텉
테
텍
텐
텔
템
텝
텡
텢
텨
텬
텼
텽
톁
토
톡
톤
톦
톧
톨
톰
톱
톳
통
톶
톷
톹
톻
톼
퇄
퇍
퇏
퇴
툐
툡
투
툭
툰
툴
툼
툽
툿
퉁
퉂
퉃
퉄
퉅
퉈
퉐
퉤
퉷
튀
튄
튈
튐
튑
튕
튘
튜
튠
튤
튬
튭
튴
튵
튶
트
특
튼
튿
틀
틂
틈
틉
틋
틍
틎
틏
틐
틑
틓
틔
틕
티
틱
틴
틷
틸
팀
팁
팃
팅
팆
팇
팈
팉
파
팍
팎
판
팓
팔
팜
팝
팟
팠
팡
팣
팤
팥
팦
팧
패
팩
팬
팯
팰
팸
팹
팻
팽
퍂
퍄
퍅
퍈
퍙
퍼
퍽
펀
펄
펌
펍
펏
펐
펑
펖
펗
페
펙
펜
펠
펨
펩
펫
펭
펴
편
펹
펺
펻
펼
폄
폇
폈
평
폍
폎
폐
포
폭
폰
폳
폴
폼
폿
퐁
퐂
퐃
퐄
퐆
퐈
퐉
퐜
퐝
푀
표
푠
푤
푳
푶
푸
푹
푼
푿
풀
품
풉
풋
풍
풑
풒
풓
풔
풘
풤
퓌
퓨
퓬
퓯
퓰
퓸
퓽
퓾
픀
픃
프
픅
픈
픋
플
픔
픕
픗
픙
픜
픝
픠
피
픽
핀
필
핌
핍
핏
핑
핒
핔
핖
하
학
한
핝
핞
핟
할
핡
핢
핤
핥
핧
함
합
핫
핬
항
핮
핰
핲
핳
해
핵
핶
핸
핺
핼
햄
햅
햇
했
행
햋
햌
햎
햏
햐
햑
햔
햗
햘
햞
햟
햠
햡
햣
햤
향
햬
햿
헀
헁
허
헉
헋
헌
헎
헏
헐
험
헙
헛
헜
헝
헢
헣
헤
헥
헨
헬
헴
헷
헸
헹
헺
헿
혀
혁
현
혈
혐
협
혓
혔
형
혜
호
혹
혻
혼
혿
홀
홇
홈
홉
홋
홍
홎
홏
홐
홑
홓
화
확
환
활
홠
홤
홧
홨
황
홰
회
획
횐
횟
횡
효
횩
횻
횽
훀
훃
후
훅
훈
훋
훌
훍
훔
훗
훙
훚
훝
훟
훠
훤
훨
훯
훳
훼
휀
휑
휘
휙
휜
휠
휨
휩
휴
휻
휼
흄
흉
흊
흍
흎
흏
흐
흑
흔
흕
흗
흘
흙
흠
흡
흣
흥
흩
흫
희
흭
흰
흼
흿
힁
히
힉
힌
힏
힐
힘
힙
힛
힜
힝
힞
힢
힣
︎
️
︿
！
，
ﾉ
ﾞ
￦
𐨛
𖤐
🌝
🌟
🌱
🌸
🍒
🎈
🏧
🏻
🏼
🐶
🐼
🐽
👌
👍
👎
👏
👐
👻
💐
💓
💕
💖
💗
💘
💙
💚
💛
💜
💩
💯
🔥
🖒
🖤
😀
😁
😂
😃
😄
😅
😆
😇
😉
😊
😋
😍
😑
😒
😓
😔
😕
😖
😘
😛
😞
😠
😡
😢
😣
😤
😥
😧
😫
😬
😭
😮
😱
😵
😷
😻
🙂
🙃
🙄
🙅
🙋
🙌
🙏
🚩
🤍
🤎
🤔
🤗
🤟
🤢
🤣
🤦
🤬
🤭
🥢
🥰
🥳
🥵
🥶
🥺
🧃
🧊
🧡
🧸
##품
##력
##버
##미
##물
##며
##고
##완
##전
##좋
##숮
##니
##다
##지
##리
##슥
##아
##곗
##바
##늘
##에
##장
##팅
##어
##거
##워
##졌
##변
##수
##ㅜ
##글
##서
##인
##람
##구
##멍
##릅
##착
##용
##이
##림
##가
##드
##실
##자
##하
##옺
##호
##네
##ㅎ
##색
##추
##는
##걸
##임
##감
##천
##H
##I
##W
##U
##N
##B
##G
##F
##한
##메
##일
##빳
##줄
##근
##쓰
##려
##요
##강
##기
##루
##목
##엉
##망
##ᆢ
##ㅡ
##동
##머
##잔
##g
##e
##i
##s
##h
##u
##숙
##묘
##통
##ㅍ
##둄
##둌
##ㅊ
##ㅁ
##ㅅ
##덬
##묰
##ㅈ
##뇾
##져
##마
##친
##해
##진
##조
##식
##안
##정
##■
##◇
##£
##□
##더
##꿨
##춘
##빼
##면
##으
##나
##님
##차
##파
##개
##재
##ㅓ
##ㄴ
##퍼
##태
##유
##ㅠ
##꺄
##갸
##우
##후
##당
##사
##각
##형
##스
##폰
##등
##ㄷ
##ㅇ
##러
##노
##첨
##초
##저
##란
##여
##오
##비
##량
##터
##힘
##반
##칙
##꿔
##과
##쳐
##야
##라
##둥
##대
##ㄹ
##ㄻ
##언
##ㄱ
##ㅂ
##로
##ㅏ
##치
##ㅐ
##닠
##료
##ㅗ
##런
##폭
##른
##침
##맛
##랄
##들
##짝
##웠
##함
##래
##접
##도
##플
##펜
##슬
##첞
##능
##게
##평
##국
##프
##링
##트
##보
##세
##간
##었
##을
##패
##싸
##관
##본
##받
##즈
##ㆍ
##릴
##와
##너
##까
##히
##낙
##께
##현
##명
##빠
##르
##긴
##악
##쉽
##암
##쁜
##번
##✺
##챃
##은
##행
##영
##단
##제
##빈
##무
##큼
##골
##만
##모
##햌
##옹
##얼
##줌
##배
##레
##엄
##방
##괜
##찬
##작
##업
##복
##할
##산
##잘
##입
##시
##원
##건
##m
##힌
##놀
##난
##막
##털
##락
##벙
##심
##껏
##츄
##ㅋ
##누
##럼
##3
##폐
##ㅌ
##얏
##셧
##엹
##퍄
##달
##병
##랸
##론
##합
##많
##음
##매
##겠
##습
##적
##ㅕ
##둘
##름
##디
##떡
##a
##헌
##두
##씨
##체
##렸
##둔
##질
##찡
##슨
##화
##청
##소
##데
##덜
##부
##담
##편
##냄
##새
##같
##잠
##먼
##째
##련
##닥
##토
##타
##돌
##늏
##률
##즇
##커
##둑
##그
##긌
##싼
##붙
##애
##피
##특
##급
##옵
##렁
##주
##농
##잡
##운
##툴
##탈
##환
##C
##T
##V
##쪽
##껍
##포
##브
##듯
##금
##겨
##던
##않
##종
##츠
##중
##5
##탁
##참
##팔
##켄
##쉬
##룸
##의
##울
##짐
##킇
##탑
##점
##승
##톤
##슴
##벌
##직
##것
##불
##밀
##했
##교
##셔
##끼
##끈
##내
##죽
##삐
##견
##격
##상
##펙
##클
##카
##뉴
##룩
##🏻
##신
##경
##써
##죠
##집
##속
##든
##령
##발
##끄
##덩
##척
##밥
##썹
##티
##웨
##핀
##섞
##길
##협
##둡
##쌍
##찮
##죵
##6
##1
##9
##켜
##팡
##송
##빨
##렌
##판
##🤍
##였
##쿠
##렐
##온
##깔
##끔
##럽
##킹
##짜
##증
##납
##못
##선
##택
##융
##듇
##섯
##득
##압
##녀
##벼
##젼
##광
##싱
##법
##설
##휴
##냐
##없
##낀
##n
##t
##덤
##겼
##먹
##연
##민
##펠
##쓸
##놓
##놔
##0
##2
##7
##8
##퇴
##y
##션
##S
##박
##김
##딱
##성
##걀
##찜
##투
##웉
##렴
##땜
##허
##ㅒ
##ㅑ
##랙
##백
##4
##톱
##f
##d
##았
##뮤
##굿
##혀
##l
##블
##헤
##랑
##쳤
##살
##날
##쁘
##낼
##떻
##족
##p
##느
##늕
##궈
##럭
##출
##갱
##K
##즙
##쩌
##흐
##튜
##ㅣ
##딪
##닣
##렇
##홉
##깁
##축
##늣
##준
##냥
##월
##큰
##랐
##얹
##ㅀ
##힝
##문
##양
##계
##철
##립
##욕
##맨
##떨
##생
##릿
##밧
##크
##외
##턴
##록
##창
##홎
##분
##훈
##뾱
##논
##삼
##딛
##ㅢ
##듻
##ㄸ
##알
##쳥
##탱
##춰
##향
##봉
##쌀
##벽
##큐
##퓨
##텨
##별
##쇼
##팬
##겁
##석
##맞
##픔
##약
##채
##샐
##응
##쥬
##린
##왔
##얀
##뜻
##딫
##윽
##첫
##컥
##o
##갈
##랍
##험
##삭
##뵙
##때
##희
##ㅔ
##말
##확
##닌
##셨
##넉
##순
##역
##굴
##쭈
##랜
##낑
##ㅖ
##곡
##절
##눌
##튼
##쵸
##햐
##륙
##솔
##넓
##회
##규
##슛
##움
##싶
##ㅛ
##ㄽ
##P
##넬
##씩
##늉
##류
##랕
##챦
##깽
##테
##페
##뎅
##캐
##턋
##툐
##뷔
##좁
##끌
##똠
##닙
##꺼
##쟤
##옫
##슈
##억
##있
##넣
##빵
##칠
##앵
##q
##k
##처
##곤
##X
##퀴
##례
##넛
##쉭
##넚
##늗
##D
##겔
##ㄵ
##올
##걱
##젓
##뻑
##충
##낌
##틀
##징
##빛
##햞
##펴
##랗
##녁
##눈
##퐉
##염
##r
##랫
##핫
##딜
##봤
##봐
##쾌
##힐
##슿
##항
##w
##쟈
##럊
##뎌
##탕
##룻
##욘
##핏
##년
##킬
##곳
##념
##킨
##겧
##남
##듸
##쫄
##닐
##딘
##최
##열
##필
##ㅆ
##춤
##쨍
##램
##펄
##x
##픃
##킆
##키
##위
##v
##z
##멓
##곁
##껴
##퓾
##흊
##훔
##흄
##닝
##믄
##되
##맹
##랴
##틱
##쌌
##좌
##뜸
##굽
##예
##왜
##뿌
##웟
##똥
##십
##췄
##콤
##넘
##샤
##콛
##b
##케
##즌
##펑
##잇
##껄
##랳
##뵈
##긋
##빙
##핑
##넌
##낸
##옥
##힛
##학
##ㅃ
##덴
##★
##☆
##섰
##따
##렜
##큘
##쟁
##훅
##답
##샀
##릉
##놨
##M
##잉
##뜨
##캬
##쓴
##떠
##O
##A
##혜
##룬
##뒀
##퉁
##군
##핸
##햇
##독
##뜩
##쫀
##륜
##셤
##롴
##푸
##꾹
##풤
##깍
##돈
##뻐
##ㄿ
##탠
##깎
##궁
##눞
##셋
##롱
##귀
##엽
##롯
##ु
##딸
##템
##멀
##뽁
##범
##풀
##꼴
##코
##욧
##표
##롬
##롤
##몰
##쩝
##뽀
##릭
##ᄀ
##ᆞ
##겟
##웃
##귤
##옷
##낍
##술
##c
##공
##를
##몽
##탐
##녿
##닛
##꼬
##싹
##̤
##̆
##뷰
##앗
##굉
##높
##룡
##줘
##L
##잳
##랒
##흘
##탄
##율
##혼
##꼼
##깨
##옴
##👍
##😊
##랏
##켈
##꾸
##볼
##꼈
##댁
##콘
##겐
##튶
##얗
##널
##칼
##취
##씌
##딴
##끗
##겋
##훨
##뒤
##꿈
##값
##혹
##쇄
##넹
##겹
##뤁
##갠
##댜
##므
##쎄
##눕
##띠
##j
##럴
##🤟
##셀
##획
##핟
##찼
##팇
##챵
##턑
##븓
##쓱
##씁
##ㄶ
##놰
##퀄
##폿
##푀
##찝
##흠
##책
##팥
##E
##R
##픝
##샌
##낱
##맥
##뮴
##벅
##육
##익
##늄
##뚠
##쩐
##긤
##멜
##혈
##밤
##넷
##첱
##꽃
##뚝
##찍
##갇
##렙
##닏
##짓
##잊
##릐
##긔
##톡
##튀
##칩
##옄
##벳
##퍽
##퐄
##푼
##괮
##룰
##액
##촐
##캏
##ㅝ
##깝
##봄
##짱
##뀐
##ㅙ
##먿
##베
##냋
##깃
##릋
##슷
##왈
##엔
##캌
##짛
##듀
##잼
##💯
##콜
##ᵕ
##컷
##뜰
##뻔
##결
##층
##효
##훠
##귣
##핮
##펖
##극
##̣
##몬
##젤
##밖
##맵
##갔
##😞
##붑
##솗
##늡
##늫
##숫
##럏
##찔
##죤
##렉
##늦
##컬
##팀
##뱁
##빅
##맸
##숑
##킃
##릇
##롭
##휻
##ㄳ
##홐
##첼
##좀
##엿
##졎
##꿀
##손
##팜
##균
##텅
##휙
##짖
##긍
##읏
##퐈
##뿐
##몮
##묻
##텔
##닭
##컴
##갑
##홀
##웡
##쩔
##륟
##윰
##앙
##쾅
##찰
##🤬
##깐
##뺼
##쌈
##옆
##꾼
##븑
##흔
##뻤
##됴
##팈
##롸
##렝
##휼
##눅
##멋
##짤
##탬
##픈
##켰
##🏼
##낭
##눙
##흑
##또
##¥
##쫌
##즣
##륻
##즢
##센
##짬
##렛
##🌱
##🧃
##슘
##밑
##녜
##찌
##먀
##놂
##😉
##탚
##찐
##칵
##훗
##쪼
##낳
##텀
##셉
##긘
##딕
##꽝
##잎
##왓
##놈
##텐
##눠
##몇
##뇨
##솧
##솟
##홍
##측
##팽
##럿
##옝
##ㅉ
##😭
##씻
##욱
##듬
##혔
##싓
##븝
##븍
##귶
##굑
##💖
##곰
##쯔
##잗
##욤
##꼿
##얄
##존
##컨
##냉
##콩
##ㅞ
##💕
##혐
##껌
##썩
##켓
##첯
##갓
##섮
##땀
##윤
##뜬
##쁩
##객
##믹
##뱉
##황
##챠
##활
##쇠
##눃
##촟
##섭
##힙
##섬
##총
##J
##폼
##뤄
##좃
##좆
##섲
##쭤
##략
##🥢
##훙
##♥
##댈
##뚤
##덕
##늠
##꽂
##̴
##̶
##̷
##̥
##́
##닷
##덟
##엥
##됫
##렵
##씬
##쪄
##렷
##옛
##볕
##듭
##낄
##녔
##빔
##뚱
##엌
##봅
##😁
##댔
##닉
##줜
##씸
##뒹
##줍
##밴
##띵
##펐
##턱
##렀
##셜
##둬
##냈
##😍
##툭
##캉
##뚜
##껑
##컹
##묵
##풍
##냅
##×
##엘
##숀
##쁠
##틴
##툼
##팝
##텍
##릎
##틸
##듕
##젿
##탔
##삶
##밍
##̼
##찷
##̈
##썼
##늭
##웩
##낵
##♡
##얌
##싫
##쩡
##왕
##북
##뽈
##챱
##냍
##뢰
##듟
##댓
##퉂
##옇
##돔
##즘
##숨
##ㅟ
##멈
##칫
##릳
##벤
##잭
##헐
##줬
##쿵
##닫
##텈
##촉
##싄
##●
##읻
##벨
##ા
##춓
##녓
##🤣
##죄
##웅
##춚
##듈
##냠
##흥
##뭉
##엇
##셈
##맚
##됏
##낟
##랬
##윙
##볶
##렘
##팠
##녹
##긱
##쟆
##뎃
##겣
##춥
##❣
##뭐
##붕
##앴
##챁
##켯
##핲
##웬
##된
##🤎
##쨌
##녕
##팍
##맘
##뇸
##쁌
##젠
##엑
##늑
##랭
##멘
##퐆
##럐
##덛
##뼈
##쌰
##앚
##˃
##솓
##꼭
##쌩
##촌
##킵
##톹
##촵
##룹
##랠
##궤
##돗
##긧
##슺
##앖
##뭇
##팩
##뻘
##쏙
##검
##떰
##쫙
##맣
##ㄺ
##킷
##퉄
##잣
##궜
##렬
##훼
##픽
##몸
##윈
##냔
##딩
##넥
##삿
##숍
##̎
##콬
##륵
##칭
##쁨
##뜯
##헬
##잖
##얇
##밭
##뱃
##빗
##츰
##앨
##핵
##햘
##봎
##갖
##났
##벗
##둠
##댄
##솥
##닦
##똑
##흿
##틈
##샵
##먄
##╹
##◡
##먖
##ᄋ
##쨩
##땠
##꽥
##뇿
##띱
##닞
##믓
##숭
##룾
##Z
##숳
##😄
##탘
##꿎
##괴
##똘
##믿
##닂
##둊
##쿄
##툰
##뛰
##듦
##땡
##쿨
##뉸
##넨
##쎈
##껀
##칞
##권
##핳
##😀
##얘
##즉
##눴
##틑
##덮
##겉
##젛
##♧
##찾
##셩
##곶
##흣
##떤
##귿
##땅
##늬
##낚
##뺴
##솜
##탳
##뻥
##딉
##햗
##왼
##쭉
##첩
##🙏
##븐
##🐼
##ㅚ
##짭
##듰
##컸
##읭
##짼
##콕
##쩍
##ㄾ
##탸
##삲
##숟
##좔
##쫩
##튤
##굼
##븨
##싣
##빽
##돠
##닻
##닿
##뎁
##짇
##윳
##🤭
##😂
##헿
##돼
##뎠
##룽
##귽
##죋
##걍
##멉
##잃
##썽
##챙
##홈
##ם
##럎
##엠
##뭏
##챀
##껐
##쳔
##엣
##앏
##흉
##앉
##붓
##씀
##깟
##콰
##숴
##̵
##͈
##̑
##ᴗ
##˂
##맷
##겸
##짚
##ો
##폎
##놘
##๑
##॓
##즤
##숩
##😃
##헢
##땐
##릍
##탙
##델
##겅
##삑
##뤘
##뎥
##펍
##챳
##꼐
##릊
##헏
##읍
##폈
##샘
##봇
##푹
##갗
##렫
##폳
##😡
##춧
##빌
##곻
##뫃
##맂
##렂
##꿉
##샏
##컵
##떳
##듁
##엎
##빡
##뇬
##흩
##숲
##훳
##닽
##헨
##ㅘ
##쩜
##맡
##즐
##ﾞ
##츈
##̀
##뱔
##빤
##븟
##툡
##옽
##뒷
##뮿
##쥐
##핔
##탗
##쿤
##끓
##흰
##몫
##듹
##놑
##눔
##늩
##᷅
##얾
##갷
##뮬
##쯧
##탛
##쑥
##앎
##👏
##챂
##춭
##읖
##앋
##캍
##펭
##귄
##볍
##닺
##흙
##탭
##끝
##괄
##🙂
##쫠
##딯
##옿
##굡
##꾜
##깜
##딎
##븾
##긕
##듼
##긛
##Y
##낮
##ㄲ
##댝
##햄
##됗
##굳
##늿
##🖒
##팎
##팉
##갛
##깡
##쌉
##갲
##븤
##뵺
##돞
##솝
##륨
##봣
##€
##딋
##믈
##쯤
##젇
##뵵
##앷
##뽕
##덪
##뱌
##깅
##갯
##껜
##젝
##끽
##룍
##딧
##졸
##욜
##Q
##콭
##짣
##벱
##쏠
##믯
##떄
##텁
##쉴
##씹
##퐁
##욯
##픕
##녾
##궆
##헛
##맙
##힣
##졷
##둇
##탆
##멎
##숱
##젖
##밋
##🤗
##찢
##욌
##웁
##댑
##캠
##땃
##떵
##앳
##촥
##홓
##슫
##엋
##뱅
##ㄼ
##곱
##벚
##끂
##첕
##긳
##걔
##덥
##욷
##쾍
##곽
##ᄉ
##😤
##😬
##😧
##딤
##싯
##닜
##캔
##냇
##댕
##꽁
##͂
##눗
##톨
##칰
##샷
##톰
##쿡
##뿃
##볌
##켁
##킴
##홏
##륳
##톷
##췌
##좍
##탓
##컿
##캿
##냣
##뢋
##솰
##칸
##읔
##짠
##랩
##깥
##븧
##갰
##앞
##즏
##쏨
##뿁
##곧
##짧
##넒
##뉜
##뉺
##쪘
##쳘
##틔
##❛
##줏
##뿔
##쑤
##왹
##엡
##ᄌ
##꼽
##닼
##쿰
##슐
##츲
##칮
##챤
##멧
##늓
##첳
##뎀
##풋
##섀
##혁
##휘
##찹
##밝
##눼
##넝
##뿩
##컄
##롷
##뱝
##궙
##귯
##낫
##☠
##흼
##겇
##갚
##🥶
##믐
##쌔
##겻
##펫
##팃
##쎠
##횽
##🔥
##듐
##잫
##쇈
##넙
##됬
##뎓
##넞
##렆
##멩
##🥰
##쟌
##꿍
##͓
##겈
##띡
##뇹
##챛
##꽐
##깊
##꺽
##귻
##뎍
##굩
##샽
##햅
##튵
##씽
##밸
##퀸
##잍
##멸
##킂
##튿
##덯
##웜
##쟝
##텡
##돟
##썸
##떼
##팟
##몄
##옻
##쟅
##붉
##뿡
##훃
##댱
##믾
##뀔
##쪗
##흡
##쉑
##뢈
##쳪
##캡
##팸
##덧
##걷
##쏘
##춍
##겯
##썰
##뚫
##촘
##퉅
##됨
##앝
##돋
##넏
##쫏
##욬
##᷄
##궂
##슭
##▽
##≤
##륛
##핰
##잪
##뤼
##펀
##둣
##궇
##솦
##🎈
##앤
##읓
##듖
##뮈
##뀜
##댐
##뀌
##슾
##ᗜ
##ˋ
##💛
##됻
##숌
##뉠
##엍
##텬
##쨔
##뵽
##괘
##∇
##≦
##😫
##헜
##텝
##챨
##펗
##앟
##쇽
##솛
##◟
##쨋
##뢔
##뉘
##풔
##븢
##썻
##칧
##낯
##셍
##숯
##듣
##텉
##롢
##꿋
##훚
##눝
##딨
##팦
##잋
##둓
##츌
##맴
##첲
##밌
##푳
##뇽
##늜
##🙃
##캄
##잌
##떴
##쫑
##흍
##늍
##짢
##썬
##뿍
##랯
##촣
##헴
##덱
##빴
##덫
##😢
##뻣
##륭
##녖
##얒
##뺀
##캣
##굣
##슩
##읫
##욮
##퀘
##큪
##슉
##퓌
##묜
##넢
##틍
##챻
##얺
##뫁
##봊
##롵
##큔
##큨
##붜
##홋
##헎
##윗
##찯
##퓸
##쨥
##🥳
##뫠
##삣
##졋
##럄
##헉
##샨
##뭄
##쿺
##끙
##윹
##걺
##😇
##ㆀ
##뉼
##쟛
##쭙
##믕
##쑈
##믛
##됩
##엏
##듓
##봨
##볐
##죻
##뿜
##좝
##챝
##즴
##줒
##͙
##쫜
##밓
##낰
##윅
##헋
##잦
##앓
##죚
##븻
##먕
##겡
##💚
##틓
##줫
##킁
##퉤
##섹
##릶
##튬
##🧊
##넜
##될
##퀌
##뺏
##웸
##긒
##궃
##궅
##궄
##⏺
##쳫
##믁
##훋
##겊
##삽
##붐
##뤃
##뀝
##쾃
##뭘
##뇌
##퓬
##뭔
##😠
##🤔
##🙄
##😒
##튴
##겆
##츕
##왠
##싇
##웰
##쉐
##펼
##쳣
##쿔
##ㅄ
##젯
##픗
##싷
##₩
##뾰
##굵
##셕
##긊
##싀
##훌
##팰
##믝
##긪
##폴
##듲
##😆
##긁
##앰
##댇
##촪
##놤
##흕
##솢
##땨
##핖
##즁
##맫
##◠
##맑
##릏
##🧡
##늧
##팣
##톳
##뱀
##핼
##쿱
##퇍
##뉻
##펌
##뀠
##흏
##뭊
##텼
##욪
##챌
##쯰
##옮
##॔
##톦
##얯
##뇩
##앛
##깤
##젭
##쮸
##냘
##겿
##챗
##웆
##몹
##싲
##쳬
##쟞
##삯
##쵹
##쟙
##줓
##콸
##니다
네요
어요
는데
아요
구매
너무
습니다
배송
합니다
해서
사용
으로
보다
그냥
지만
아서
제품
어서
가격
해요
생각
만족
주문
입니다
많이
사이
사이즈
ㅠㅠ
에서
빠르
별로
맛있
포장
다른
저렴
괜찮
세요
ㅎㅎ
상품
정말
하나
냄새
아니
아이
감사
부분
에요
아주
인데
으면
진짜
보내
조금
그래
정도
구요
구입
ㅜㅜ
반품
아직
느낌
깔끔
ㅋㅋ
엄청
다고
불편
완전
##어요
떨어
모르
다시
##져서
은데
그런
려고
다가
처음
사진
##뻐요
빠른
##자인
디자인
편하
##구요
효과
튼튼
까지
상태
선물
대비
예요
라고
색상
추천
기대
귀찮
실망
더니
들어
교환
다음
마음
계속
오래
건지
없이
이쁘
바로
##00
물건
해야
여기
설치
##해요
더라
##대로
아쉽
이상
불량
그리
박스
는지
항상
크기
이랑
같이
아기
ㅡㅡ
아닌
##해서
이거
택배
##워서
조립
와서
##려서
처럼
부드
잘못
보이
그리고
##렇게
이번
시간
그래도
예쁘
스럽
근데
이런
한데
이나
마감
건데
면서
버렸
시켰
##께요
재질
##세요
역시
확인
필요
셔서
적당
최고
가성
빨라
##게요
으니
기분
시원
이뻐요
인지
나요
더라구요
자마
자마자
힘들
매우
고정
시켜
후기
약간
비싸
해도
만큼
씁니다
니까
때문
##다고
이건
판매
빨리
예뻐요
##가요
들어가
품질
라서
머리
아쉬
나오
아무
착용
만들
##려요
스러
##려고
이렇게
소리
문제
여러
하루
케이
떨어지
꼼꼼
다는
여름
피부
네여
가지
그렇
10
부터
일단
전화
신경
가볍
조아
원래
비추
최악
부드럽
리뷰
도착
전혀
충전
어야
세탁
##어나
됩니다
그런지
뚜껑
처리
사람
제대로
자꾸
듭니다
그래요
추가
마다
자주
살짝
별루
다르
친절
##져요
ㅋㅋㅋ
봐요
설명
걱정
연락
먼지
버리
한테
했어요
케이스
보여
금방
어도
색깔
연결
편해요
심하
거의
주일
못하
고요
달라
드렸
##는데
나와
커서
신선
그래서
다니
려구요
다리
접착
붙이
샀어요
지금
구멍
길이
기다
친구
빠지
마세요
차이
##이트
빨랐
이용
넉넉
한번
아까
유통
##립니다
##너무
짜증
다만
고민
화면
촉촉
고급
제일
모두
찢어
아용
정리
엄마
으나
절대
건조
비해
커버
환불
의사
고무
기한
그대로
고기
깨끗
할게요
걸로
가능
ㅎㅎㅎ
그러
똑같
올라
걸렸
비닐
운동
너무너무
##합니다
따로
고장
##이프
자체
확실
이게
참고
따뜻
모양
이유
##지만
간편
바닥
어용
비싼
의자
바르
나사
이것
매번
봐야
퀄리
바람
어떻
퀄리티
에게
꾸준
이제
그랬
##네요
느리
기사
정품
후회
##그러
빨라요
지나
##라스
편리
가방
시키
블랙
습니
오늘
꾸준히
써요
기존
기스
애기
소재
엉망
빨라서
벗겨
스티
져서
얼굴
##잡이
##비스
부러
사은
성비
사은품
무게
할께요
바지
구성
손잡이
부드러
스러워
화장
지워
서비스
딱딱
쓰레
플라스
원단
찌그러
플라스틱
기름
대로
써야
납니다
번창
맛나
일반
무거
훨씬
두께
##스크
20
쓰레기
보관
저희
으려고
두꺼
강추
확실히
ㅠㅠㅠ
짜리
는데요
100
신발
라는
귀여
걸리
아도
##머니
나무
어떻게
붙여
아무리
김치
지퍼
선택
중간
마시
여행
미끄
##레이
부족
매트
아파
판매자
져요
다이
얼마
냉동
##다는
조절
그런데
나쁘
약하
보여요
흔들
어려
커요
마리
어렵
기능
내용
보통
라도
길래
무슨
게요
싱싱
수납
이불
##아요
이걸
거나
뭔가
깨져서
가벼
결국
허접
그저
쿠션
던데
직접
셔야
겨울
귀엽
##워요
무난
예정
보단
전체
접착력
사세요
허리
검수
우리
장난
##라이
핑크
중국
##릅니다
아이스
아깝
아들
스티커
자국
가루
미리
요즘
그닥
마트
마스크
부모
이미
유리
광고
여서
##거리
거품
착용감
비슷
건가요
제거
패드
##집니다
남편
어여
벌써
##가락
##요일
##까요
##걸이
한쪽
무엇
봅니다
작동
니다
쓸께요
아프
정확
예전
##부분
설명서
혼자
나가
부탁
솔직
높이
하지만
무겁
려다
약해요
짱짱
개월
터져서
##구마
신랑
파손
건강
흰색
저번
돌아
화이트
습니당
어울
어쩔
드립니다
컬러
텐데
##아지
어디
아쉬워
동안
인터
기본
용량
색감
테이프
나왔
느껴
은지
두껍
먹이
아침
모자
흘러
양념
인터넷
흡수
##으나
맛없
이쁜
여자
대박
업체
요청
##뻐서
비지
세트
##려야
푹신
스타
확정
견고
솔직히
내요
비교
얼룩
매일
##니까
공간
상자
성능
필름
보고
비지떡
지난
가슴
##스트
괜히
교체
늘어나
다행
대충
문의
부담
베이
활용
회사
검정
귀여워
굉장
아예
고구마
생기
##군요
서랍
번거
달라요
남자
예쁜
올리
보냈
굉장히
떨어져요
##라서
가장
느려요
안쪽
아닌데
소음
휴대
##서리
새로
침대
시킬
간단
##으면
##라인
##운데
팬티
떨어져서
다신
지속
배달
언제
청소
개인
당황
유용
내려
올려
그렇게
답변
모서리
부서
발송
신청
12
부실
움직
끼우
그럭
작업
내용물
강아지
거리
기간
못했
실제
인가
평소
30
가족
누가
##저럭
모기
취소
놀랐
아래
속상
우선
그럭저럭
돼서
빠릅니다
이틀
##고요
고소
##인트
##심히
돼요
양말
고객
크림
트러
빠져서
아님
어떤
자극
트러블
나와서
바꾸
분리
약해서
종이
문자
입맛
혹시
브라
음식
라면
불안
프로
함께
간식
맞춰
뻑뻑
에어
바꿔
##랍니다
더군요
써서
느라
지인
커피
부위
하고
했었
15
실리
고리
미끄러
덕분
어깨
종류
특히
군데
아가
마니
을까
더라고요
단단
챙겨
곰팡
실리콘
다양
아쉬웠
봉지
성분
니당
봐서
부착
아야
찝찝
발라
아닙
kg
한지
심해요
으려
으시
그런가
냉장
좋아
나와요
나중
뿌리
품평
가죽
용도
아쉬운
관리
다면
실밥
바퀴
버림
겁나
나머
드리
실패
##라리
전부
불만
그것
느렸
이해
대용
비린
촉감
##없이
밖에
인가요
##000
보풀
급하
차라리
상담
시작
시킨
약한
가려
##어지
느끼
상당
품절
네이
샴푸
할까
##겨서
꼼꼼히
방법
편한
고생
방지
나름
답답
망가
준비
줘야
편합니다
##구려
##저분
싸구려
받침
빠짐
##아보
아파요
신축
몰랐
밴드
어느
적극
힘드
열심히
금액
실물
핸드
빠져요
줘서
라인
보여서
기다리
니깐
바랍니다
경우
그레이
지저분
##느질
느림
사실
바느질
쉬워요
##혀서
상판
책상
장착
##랜드
빠져
일부
아까워
해외
##저기
거치
며칠
오히
여기저기
적당히
신축성
붙였
심플
도움
화장실
편안
향도
허술
##덩이
와이
집니다
터지
오히려
사료
우유
일어나
아닙니다
끼워
빠름
떨어져
려고요
아닌가요
보호
쇼핑
엉덩이
##터리
다이어
나머지
##리스
##여서
부드러워
ㅠㅜ
상당히
나온
버튼
지속력
심해서
깨져
거울
주변
##리어
##징어
그거
투명
버릴
16
cm
너무나
실수
졌어요
충분
11
애매
올라가
그립
돌리
편해서
내구
선반
소스
그나
속도
인식
치수
스크
여유
떨어짐
먼저
보낸
사무
위해
전하
용기
##입니다
##음질
눌러
배터리
버려야
브랜드
몰라
손톱
박음질
그나마
겨우
껍질
난리
대신
무료
싸이
다이어트
던지
오징어
드려요
어머니
##ㄴㅇ
캠핑
테이
24
코팅
##무리
두피
수고
얼음
을게요
방수
본드
속옷
수준
요리
을께요
뻣뻣
새우
세척
터치
실용
저녁
개봉
생겼
구겨
##저냥
그냥저냥
기다렸
대체
된다고
벌레
볼트
빨래
당일
엉성
워낙
지난번
날짜
동일
만드
베개
안전
옷걸이
마무리
예뻐서
시계
신기
은은
##이크
냉장고
17
가까
는대
응대
자리
그게
쁩니다
전이
##아이
스타일
18
깨진
어찌
##보리
깜짝
암튼
자석
돌아가
구워
넘어
다녀
지요
떨어졌
핸드폰
걸려서
날씨
매장
무지
봐도
부들
사고
안심
터져
으니까
세정
티나
사라
수분
떨어집니다
깨지
꺼내
한참
##래치
스크래치
##티슈
두꺼워서
50
ㅜㅠ
단점
되게
블루
안경
##김치
25
검색
물티슈
센터
손가락
큽니다
##란다
사무실
잡히
##바닥
가벼워서
도록
안정
압축
##다가
벗겨지
가요
가운데
스트
이전
진하
칫솔
한두
군요
베란다
약해
이유식
어제
자세
조심
주말
##자기
더러
해용
단맛
어두
가져
거실
드라이
한다고
해졌
베이지
다이소
걸림
제작
키로
필수
##고기
##려도
개선
그림
상한
으신
표시
비린내
강하
답니다
물품
식감
자동
##와서
사이트
아쉬움
걸린
버려서
분위
쓸게요
흠집
##로나
곰팡이
드릴
분명
##더니
아이보리
이리
커튼
할지
누락
스프
작년
##부들
된다
했으나
스러웠
가끔
거든
께서
발림
장난감
어울리
부들부들
놀랬
온도
차량
얼마나
혹시나
샘플
자연
코로나
통화
헐렁
휴지
모든
모델
밀리
향기
이걸로
분위기
과정
따라
려면
양쪽
어쩌
더라도
스러운
건전
완벽
왔어요
의심
자기
불량품
나눠
동생
렵니다
아여
재고
외출
으네
##카락
머리카락
겁니다
닦이
라니
지지
##쳐서
케이블
무거운
건전지
날카
소독
어린
타입
거든요
계란
암막
어른
차단
포인트
허벅
##ㅋㅋ
국물
기저
다네요
도톰
색도
안내
이뻐
조카
물질
아빠
액정
튀어나
##라고
번거로
테이블
립니
미니
심지
양면
##친절
기저귀
건가
예민
쫀쫀
프리
찌그러져
두꺼운
당연
불가
겠어요
불친절
순간
포기
할인
그럼
잘라
들어오
시켜서
가구
애용
예상
정상
##어져
결제
상처
현상
허벅지
거기
괜찬
려니
제조
##양이
##쁩니다
찢어지
려다가
14
공기
단계
심한
완료
고장나
이쁜데
부품
##테리어
무거워
손질
을지
주머니
착하
타이트
##바지
##래요
신고
이어
프린
아까워서
상세
염색
이럴
인테리어
장갑
재미
하얀
대한
레몬
옵션
##거워
mm
레이
이뻐서
찢어져서
이러
재료
카드
부드러운
만든
유심
질기
프레
##저히
간지
갑니다
##수록
고추
고양이
보입니다
유명
지연
뒤집
모래
중고
훌륭
##어져서
스킨
한다
화질
골드
번호
봉투
여전
오른
조이
폭신
으면서
로션
줄어
필터
조립도
난감
노트
써도
알아보
야채
가리
맞추
바꿨
사기
세여
식탁
욕실
이사
할려고
황당
대용량
엄청나
생일
시트
ㅜㅜㅜ
500
고맙
그만
보임
빨대
위치
진작
편해
호환
찌그러져서
거치대
기장
일회
회색
실제로
사장
##저것
이것저것
움직이
달달
세제
수평
포함
매운
표면
게임
누르
딱히
헤드
##래도
충전기
아파서
끈적
상하
손목
연어
오프
갑자기
더워
딸아이
오일
유지
중요
착한
세정력
갈아
사과
위생
이하
##가루
23
갈라
거칠
라지
퍽퍽
일회용
할려
##레스
일부러
심지어
물론
알려
거부
궁금
연습
재밌
젖병
조리
##동안
##옵니다
포장지
간장
감자
그럴
드라
보습
예쁩니다
일자
달라서
네이버
결과
무리
어이
크레
##거운
냄새나
먹여
무조
이름
차지
직원
고무줄
올라오
여전히
무조건
막상
원목
을려고
자전
치약
페이
##니당
대요
전기
탄탄
터진
##버지
자전거
글씨
과일
적응
터졌
페인트
무늬
이곳
진심
미세
민감
소비
자분
주름
##란색
각질
국산
달리
무척
생겨서
타사
##받이
뒷면
보들
톡톡
햇빛
더럽
바라
으론
빠른데
과자
남기
라이
십니다
오염
체험
##구니
흘러내
프레임
고르
느린
도저히
동네
빨간
실내
와요
완성
##갑니다
다닐
스틱
전자
감안
질감
##인지
이미지
나을
두툼
빵빵
수령
인쇄
타이
행사
호박
아까움
변색
봣는데
수량
오리
재단
쟁여
출산
풀리
건조기
강력
개별
그릇
낚시
말리
뭔지
비누
빠진
힘든
##두리
##풍기
속상하
어린이
가위
스판
총알
##ㄷㄱ
가격대
완전히
무거워서
붙여서
밀착
발생
비치
뽁뽁
장사
오른쪽
뜯겨
리필
버린
을까요
주방
편할
##일리
고장났
양파
초등
향수
##다니
##다지
달라붙
나이
느려서
보였
시기
잠깐
테두리
고속
내부
무릎
분유
스텐
쓸려고
흐물
##은색
찢어져
브라운
그다지
둘째
트리
##마트
##까봐
##박스
오래가
세탁기
귀걸이
그건
그린
까진
마르
발색
위험
찍찍
매트리스
받침대
40
가득
늘어
해져서
##메라
아닌가
말씀
반찬
숙성
열리
이벤
집안
카메라
틀리
아무래도
접착제
네이비
이벤트
대응
또한
바디
와이프
점점
진한
##수수
두꺼워
미끄럼
예쁜데
충분히
날카로
어이없
놨는데
반짝
변경
비용
지방
테스트
해결
가벼운
소비자
듯이
래요
마른
발목
보드
생겨
셔요
친정
##보들
어려워요
보들보들
거슬
날렸
더운
데일리
뜯어
멀쩡
예뻐
창문
정확히
55
껴서
당장
발견
선풍기
육수
잠옷
젤리
펌프
해봐
##아리
80
나옴
다소
대부분
뿌려
선명
시공
식품
에선
##이드
글쎄
라요
분사
샤워
입구
기다린
내려가
맞춰서
13
거려요
쇼파
스테
아오
왼쪽
제발
##지막
냉동실
가벼워
강화
깨졌
내장
다름
레드
발볼
불쾌
손상
음질
전원
90
감동
던가
동영
부셔
섞여
세용
스펀
장점
동영상
나옵니다
묻어나
부피
얘기
에겐
초보
##여요
신선도
스펀지
방향
##다리
언제나
몰라도
거려서
냐고
돌려
물러
붙인
비해서
아버지
오버
일본
조각
준다고
파우
##ㄷㅅ
부러지
다행히
다릅니다
사항
출고
특별
스티로
나올
마셔
마냥
모니
세상
잉크
##ㅎㅎ
##스러
##제품
봐야겠
오프라인
닫히
수건
적혀
에어컨
모니터
려구
말려
성인
약합니다
측정
표기
##다면
##가지
##우스
당연히
나갈
나갔
반응
삐뚤
떨어질
기포
기울
따가
머릿
묶음
바뀌
버립니다
붙일
빠졌
시장
이래
죄송
치즈
할꺼
부드러워서
자르
##들이
흡수력
60
가게
기계
돌렸
무선
바삭
수정
이후
작음
굴러
남겨
랍니다
볼께요
볼게요
센치
슬림
의미
충격
흘러내리
22
걸이
따갑
딸기
반지
옵니다
용품
주의
현관
은데요
가로
구두
국내
단추
맨날
보조
세일
애요
여성
입히
##길래
동봉
마이
방치
심해
영상
옥수수
첨부
특유
형태
가까이
26
감기
마실
마지막
색이
잔뜩
티비
피스
##파리
아이폰
머릿결
걸려
된다는
목욕
못한
보온
복용
어차
언니
연휴
체크
프라이
##테이프
##공간
수납공간
으려구요
스티로폼
27
물기
뭔가요
불구
오후
일정
지났
초록
화분
##어버
들어갈
흔들리
좋아하
이어폰
덜렁
빡빡
생긴
오랜
이젠
잡혀
켯는데
흐르
##습니다
어차피
균형
그때
너덜
랜덤
먹일
묵직
보정
설탕
수선
절반
화사
부러졌
200
결정
날림
렌지
산지
심합니다
온라인
운전
잘라서
카페
##마토
##파이
부러져서
자세히
내내
송료
이쁨
학교
인데요
굳이
기준
몰라서
상황
인치
종일
토요일
평범
찢어졌
서랍장
휴대폰
##라인드
스트레스
ㅇㅇ
끊어
남겼
는다고
달랑
리터
변비
삽니다
상관
소분
신생
들어간
넉넉히
내일
대량
라지만
부직
알콜
억지
월요일
클렌
##어리
게장
라이트
사지
약함
으며
잘나
진동
창고
아이스박스
넘어가
19
곱창
돼지
발리
심함
##으니
##끄럽
만족도
쓰레기통
부직포
내리
댓글
블라인드
성공
에다
유기
조여
종아리
줄줄
한다는
##듭니다
똑같이
어울려요
가을
갈비
날아
대형
더워서
백화
버력
봉제
옛날
최소
프린트
신생아
억지로
그레
급한
는다
비리
사업
새콤
어떨
튜브
포근
##거지
##피스
가슴살
백화점
검은색
꼭지
다를
말라
못해
스피
심각
압박
얼른
으라고
진공
해동
##스터
와이파이
깁니다
놀이
다섯
더욱
데요
망치
왠만
우수
음료
컴퓨
헐거워
##꼭지
컴퓨터
망고
보낼
아삭
양심
영양
지갑
찍힌
파스
필기
##ㅈㄱ
그러나
미끄럽
강한
덩어리
든든
센티
소금
식구
신다고
올릴
우산
일어
하이
핸들
어려움
가시
걸릴
구김
구석
등받이
문구
밀려
버려
병원
사각
옷장
조잡
하얗
할머니
##흐물
##크림
도대
떠서
못함
별도
서로
스위
한국
##바로
##디어
봐야겠어요
유기농
각도
걸려요
레깅
발바닥
설거지
순하
쓸모
오류
이음
인듯
전반
코드
피지
그만큼
도대체
레깅스
기에
날라
달콤
배추
수리
아저
애먹
올게요
재품
##이즈
##와요
들어갔
공지
민망
분실
오픈
올해
원했
은근
이만
질겨
크로
티슈
편했
화나
##어도
간지러
아저씨
ㅇㄴ
공부
놔두
로고
메모
수세
숫자
아마
안함
으셨
의문
떨어뜨
스프링
흐물흐물
금요일
남길
눈물
달려
동그
본체
살걸
아랫
어둡
원피스
천연
추석
스러워서
찌그러진
줄어들
따듯
라기
민트
보일
여요
줘요
부담없이
노트북
경비
고려
꺼지
냄비
대서
오전
이야
정보
진정
집게
쫄깃
최대
통통
흡착
아무런
스프레이
as
ml
구분
까져
끓여
드린
뜨거운
랄까
물렁
미터
빠질
생산
세워
요거
윗부분
이너
익숙
전문
줍니다
지장
##센트
아이템
아무튼
미끄러지
28
개판
걸까요
구려
별점
삼성
세련
송장
시중
식사
쓰러
읍니다
저냥
좌우
토마토
평보
##라도
##셔서
시켜야
양면테이프
ㅇㄹ
나시
나아요
무서
바른
변기
어머
외관
위해서
잃어버
찍혀
한입
현지
화학
번거로워서
클렌징
수세미
70
놀라
두유
비침
산거
약속
우려
책임
취향
형편
##군데
화장품
감싸
당도
리모
미용
바늘
바래
정성
조개
##벌레
##불퉁
201
경비실
낭비
느려
똑바로
마우스
말랑
시리
신중
였어요
울퉁
임신
접히
특대
한텐
힘듭니다
##머리
##♡♡
군데군데
재미있
뜯어보
울퉁불퉁
각각
던져
등록
설마
유모
지성
직구
첫날
타올
##자리
##학생
아닌지
페이지
000
21
기모
덜하
마늘
만두
볶음
셀프
손님
에휴
임산
집들이
텐트
하도
했으면
##모로
여러모로
부서져서
불만족
임산부
거지
글자
깊이
다며
미역
변화
불빛
사면
사놓
생강
소개
인용
지문
찾아보
통풍
사용법
66
강해서
골랐
나빠
날리
다칠
방문
버터
복불
볼펜
습기
신속
액자
제주
찾아
치마
##지근
##러스
##너덜
##갱이
##흔들
찌그러지
어두운
드라이버
지지대
복불복
가정
데이
러지
마사
만지
발랐
발가락
벌어지
보람
센스
인견
지우
찜찜
탄력
해보
##테일
구매자
흔들흔들
부서지
더러워
유모차
개운
거림
보라
비려
스마트
시큼
연하
우드
이렇
진행
쭈글
파란색
##ㄹㅇ
지워져요
좋아해서
사라지
빨간색
트리트
너덜너덜
가늘
게다가
될지
밝기
방울
벽지
부턴
시도
인생
주기
치고
풍성
##운드
스위치
걸레
깜놀
네일
도마
드러
빠집니다
사요
세로
아라
오렌
으라
주위
지켜
질질
케어
쿠폰
크리스
할껄
현재
##키지
스타킹
건성
기둥
기억
놔서
놨어요
니트
라더니
매콤
수영
앞쪽
엄지
잖아요
저렇게
준다
최근
키우
패키지
해진
##ㅠㅠ
##ㄷㄴ
##로에
까만
낙지
뒷부분
레일
부자
생김
싱글
아픔
알갱이
일찍
잠금
젖꼭지
찍힘
토너
펴지
##배송
어머님
300
광택
귀찬
누워
다용
들리
받쳐
방석
생활
양치
와우
유산
조정
##려구요
##번에
##셔츠
##베리
기름기
어린이집
XL
가스
갈색
노란
다길래
당한
돌려서
둡니다
득템
무너
미스
밍밍
바구니
반송
사려
센서
송시
썻는데
쓰이
어지
전구
한꺼
했어
##시다
##소리
떨어진
1000
모자라
오렌지
한꺼번에
디테일
라네요
모를
밑위
반대
분해
상했
숟가락
스푼
아크
아픈
젓갈
조만
쫀득
커플
패킹
푸석
합니까
회전
##프트
##세지
문제없
찢어진
번거롭
240
닫혀
당근
도전
망설
매실
명절
미흡
밀봉
방식
사전
섬유
수저
시들
신다
안감
알로에
에용
위아
이동
자는
짝퉁
착각
프라
사이드
흔들림
음식물
구겨져서
해보여요
강해요
거려
결합
관심
구여
그치
까끌
남성
노란색
더울
보리
부속
부스러
살까
생선
소용
소파
소량
실버
싱크
전용
정착
풀려서
하드
##마디
##끄러
##연히
벗겨져
어려웠
가려움
드라마
해봐야
조만간
위아래
95
가라
곤란
공항
구조
구부
그걸
급해서
끼리
낱개
내년
렌즈
미지근
비타
사포
스탠
양호
어마
왠지
조용
조차
최저
활동
생각나
##는데도
부러져
귀여운
쇼핑백
하얀색
이음새
유산균
관련
귀차
그램
놔도
단지
로즈
마찬
미끌
버티
생가
소형
소문
슈퍼
아플
에여
에다가
완충
왔음
접시
조그
첫째
표현
##고루
들어갑니다
마찬가지
xl
각인
나라
들뜨
맥주
멸치
바를
슬립
연장
입장
입자
입기
입혀
종종
채워
트랩
팔찌
펌핑
한가
가져가
오랜만
ㅇㄷ
골라
끼웠
녹슬
누구
눅눅
대창
두드
라벨
마자
멀티
미치
벨트
손바닥
순한
알맞
앞뒤
액체
열받
용전
자크
찍히
칼라
풀려
하늘
하단
후라이
##미엄
##어진
합니다만
올라와서
여행가
프리미엄
스테이크
아크릴
거짓
공구
날파리
누렇
등등
매직
박살
비비
식당
어떡
연기
오르
이케
편의
행복
흔적
##아아
##아서
##ed
##ㅈㅂ
청소기
가까운
거슬리
미용실
마사지
가치
골고루
과대
구수
구용
도장
땅콩
마이크
바이
본인
쉬웠
이딴
장식
제로
조치
찍혀서
초기
할까요
##ㅜㅜ
##투스
감사히
친절히
어깨끈
망가지
와이퍼
번거로워
오리지
그치만
비타민
32
ㅇㅅ
가습
더블
동시
두세
떠나
리본
망했
목적
몸통
분홍
수유
심심
약품
요번
줘도
질리
착불
콘센트
클립
평평
폴리
한마디
비싼데
수납장
간단히
잡혀요
사탕
상단
신맛
아담
여태
용접
의향
인기
작성
조회
칙칙
특성
헷갈
##려구
##저리
##블러
##볶이
다녀요
분명히
튀어나와
보라색
후라이팬
이케아
고서
괜춘
구나
그동안
난다고
다운
둘레
러쉬
말려서
맛보
밑부분
발등
버클
생물
소화
제외
하자
하트
##어서
##구리
##몬드
스러움
벗겨져서
와이어
당기
도시
떡볶이
린스
마치
막대
무른
무시
미안
새벽
수도
스런
신뢰
싱겁
예약
올렸
용이
우체
젓가락
줄이
캐릭
텀블러
후크
##폰지
##먼지
##그덕
기다려서
속상해요
미끄러워
날카롭
프라이어
초록색
다용도
기기
락스
려는
물통
미국
반복
삐그덕
설정
소매
스토
스폰지
씌우
였으나
요건
워터
위쪽
유격
인해
입술
제각
카톡
패턴
편함
해져요
형광
##하나
##나나
##랑이
망가졌
250
어두워
자동차
이래서
드라마틱
ㅇㅁ
그지
근처
끊기
너트
떠요
롯데
몸무
사랑
생리
숨쉬
스며
신어
써볼
씻기
아닐
올께요
요구
유아
접촉
탄산
티셔츠
느껴져요
우체국
캐릭터
몸무게
구이
나쁜
는디
대해
만점
변형
비갑
세안
속바지
었었
여긴
옷감
원하
장판
전달
천장
출력
카키
플러스
하하
합판
휴가
##마스
##꿈치
어려워
##ㄴㅇㄹ
어떨지
제각각
그람
그날
글루
기재
눌리
담날
도색
드디어
뚫려
매끄럽
먼가
바꿀
복잡
붙히
빨갛
산뜻
샀었
세차
소고기
수박
아끼
안주
오지
요긴
유튜
일일
저런
조미
즐겨
초코
축축
출발
큰일
타일
헤어
홀더
그런가요
찢어짐
어려운
할려구요
형편없
데이터
크리스마스
유튜브
드세요
마크
모습
베리
비오
속눈
수월
순정
아몬드
으러
정전
진주
친환
카시
특이
환기
##교환
##린내
들어감
대체로
블루투스
친환경
ㅇㄱ
남친
느꼈
똑딱
리뉴
모달
무광
볼륨
부딪
새요
슬라이
오랫
유니
유연
이즈
인덕
입력
철제
칭찬
커녕
한글
##호박
##러드
##보드
##외선
던데요
망가져서
이리저리
생겨요
상관없
ᆢㄷ
갈리
감촉
구우
노래
노랑
담겨
돌려도
뒤쪽
리원
맞춤
못해서
무용
물컹
바빠
변하
분무
상의
셔츠
싸서
우러
으세요
인형
인증
제형
조명
쪄서
파인
찢어질
신발장
LE
가량
강도
깔창
놔야
단호박
대단
도라
레스
만져
못난
바깥
상큼
상해서
쓴맛
웬만
이중
자니
정신
조심히
주로
쥬스
첨가
체리
출근
킬로
팍팍
퍼즐
흡입
##고구마
##하고
##스럽
##라기
##배추
##중간
##스크림
귀여워서
부탁드
아래쪽
바꿔야
싱크대
인덕션
겨드
공장
교정
구하
굴곡
날개
단골
물어
바뀐
뱃살
삐걱
사력
상상
생수
쓰려
양배추
에센
열려서
요기
욕조
으실
익혀
일까요
자취
잠시
전선
치우
파랑
했는데도
현미
##ㅅㄱ
##ㄴㄱ
##ㄷㅂ
##오래
##900
아이스크림
올리브
120
좋아합니다
속눈썹
겉면
계절
과장
규격
끈끈
담백
라떼
매달
물맛
박혀
발톱
밥맛
빳빳
사도
샐러드
설사
수압
씹히
어색
전동
점수
채우
통째
휘어져
##지물
##이지
##데기
기다려
상담원
블루베리
매운맛
나이키
LED
개당
굵기
난다
매워
밑단
새끼
수입
스카
안녕
앞부분
애초
연한
임박
좁쌀
죄다
주소
줄기
지역
쪼금
큼직
톱밥
##사이즈
##르르
##픕니다
부러질
새로운
간지럽
스피커
무용지물
에센스
led
거트
균일
긁힌
꺼라
내려서
대리
반신
방금
백탁
스몰
애플
역할
유치
이쁠
자외선
저거
제모
채소
할땐
행거
헤라
해야지
더라구
깨끗이
벗겨짐
사라졌
미세먼지
도시락
정전기
45
견과
고마
구리
끓이
다크
뚝딱
물들
발진
배변
벗기
보름
비트
뿌듯
시스
열흘
유분
의외
입금
절단
질문
짜지
찌꺼
착해서
촬영
최애
태어나
토퍼
화요일
##쭈글
들어와서
어려울
245
필수품
끈적임
특별히
끊어졌
날아가
부스러기
가라앉
거짓말
찌꺼기
가드
거니
금새
기호
기회
꽃게
다녔
만나
못해요
물리
미스트
버려요
삼각
상쾌
소변
안방
안타
얼려
없애
이빨
차콜
쳐도
쵝오
추억
트렁
평가
학년
헐겁
##좋아요
##다른
##리카
##거림
##더기
##로그
##od
붙여야
##레이드
흔들려
이야기
트렁크
ㅜㅡ
값어
결혼
고는
그려
끼울
날씬
들러
말라서
문짝
버전
빨강
뾰족
뿌러
삐져
소프트
수업
쉬운
약국
어버
입힐
자고
잘려
줄려고
중앙
포켓
합리
효율
휘어져서
##나무
##터치
##데리
##납니다
하나하나
아무것
여러분
이제야
벗겨진
따가워
쭈글쭈글
숨쉬기
값어치
35
가깝
가이드
거래
고자
까다
까칠
나서
다구
마셨
매끈
면도
모아
모공
못합니다
문어
물놀
물때
바스
바래요
반바지
발판
발열
배앓
번들
셔도
시국
쓰일
아팠
알약
요새
원두
원터치
자몽
저렇
질긴
추워
판단
폐기
할래요
환경
회중
##수건
##이날
##sd
##ㅈㅅ
##스틱
##반짝
##시간
##20
오래오래
시켜요
습니까
화장대
베이비
해봐도
리모컨
오랫동안
배앓이
3000
간격
걸쳐
걸립니다
관절
기술
끼워서
눌려
는다는
도구
드셔
려나
마개
못할
무르
벌어
비계
뾰루
살살
신혼
옆구리
원룸
으셔서
재봉
정돈
주스
지네
지내
책장
체인
총각
캐리어
틈새
파리
패치
포크
허브
회용
##니더
##ㄷㅇ
##막이
##빨래
##맹이
아까운
부서져
구겨져
더러운
235
반짝반짝
카시트
어버이날
가렵
갈수록
겁니까
기타
는군요
담궈
답장
들떠
뜨겁
물병
뭉쳐
밧데리
비듬
성의
순면
스포
심했
씌워
열무
유축
이마트
제법
중량
착오
체형
틀린
티백
편히
풍선
##수구
##자국
##봐야
니까요
움직임
180
레이스
스탠드
조그만
오리지널
바빠서
뾰루지
36
♡♡
ㅡㅜ
감성
게여
께요
누린내
다지만
단자
덮개
든지
따끔
뚝뚝
목요일
못쓸
뭡니까
슬리
식기
신세
열려
옆면
외부
자신
작아
중단
질까
질겨서
치가
탁월
탈색
탈모
풍부
##어어
##sb
##러기
##달콤
##부터
##불호
는데도
105
빨랐으나
ㅠㅠㅠㅠ
아파트
텐데요
스트레
가리비
갈아탔
경험
꼬리
꿀맛
냉면
대처
메세지
문질
번지
보완
볼까
부각
샤오
속지
수명
수요일
쓰여
아픕니다
알차
외국
원형
인분
젛아요
제목
조작
튀김
파이
파츠
파티
하네
헬스
호불호
후숙
##거려
##덕지
올라왔
아닙니까
가져다
갈라지
물러서
새콤달콤
편의점
일일이
조미료
못난이
5000
75
ㅠㅡ
낭패
내려요
녹색
느슨
단순
달린
돌돌
려는데
마저
메이
문지
버섯
보기
본품
사야
손빨래
시럽
염려
요오
욕심
장어
적합
지도
지키
찐득
커텐
쿨링
태국
탱탱
파김치
피해
피곤
홍보
환해
휘어지
흘리
👍👍
##ㅁㄴㅇ
##깁니다
##답니다
해서인지
한데요
흔들거리
베이스
부서진
미끄러워서
흐물거리
전문가
77
거립니다
고등
골반
구워서
노랗
높낮
덕지
라탄
맞교환
메탈
몇일
밀폐
바요
시댁
식초
심이
아아
알맹이
야지
어쩜
엉뚱
요조
저서
제값
진해서
차분
참치
캡슐
콜라
터리
터짐
투박
트레이
편지
피어
햄스터
헛돌
홍합
##어마
##반의
##갈비
아서요
소리나
달라진
움직일
구겨지
##ㅋㅋㅋ
프린팅
타이어
글쎄요
반신반의
덕지덕지
갤럭
골라서
과하
꿀잠
달째
대만
동물
들뜸
시골
신문
어설
올랐
우연히
윤기
음악
즐겁
코코
탄성
특가
평점
하구
한철
한동안
##구멍
##식품
##으로
##ㄴㅁ
##로우
##맛에
##보다
##셔야
##봐도
##푹신
그런대로
그리구
기다려야
부러짐
흘러서
쇼핑몰
튀어나오
230
날카로워서
영양제
쓰러지
어마어마
똑딱이
신세계
높낮이
피어싱
갤럭시
400
가짜
구웠
기프
까슬
껍데기
넓이
누런
다림
드름
디바
로움
마침
멀리
메일
밀가루
바나나
방음
보인
뿌렸
시험
유투
이마
적절
전복
중형
처박
클릭
키친
파일
파란
한달
할께
흉터
##박이
##찌개
##텍스
으니깐
어야지
구멍나
바꿔서
160
몰라요
스테인
동그란
부속품
하늘색
샤오미
ㅇㅂ
결재
날려
녹슨
다듬
달래
당겨
독하
라텍스
마카
맘대로
먹였
메뉴
뭉치
브레이
비하
비쳐
비벼
빨개
삼겹
샀으면
스스
쓴지
어쩐
업그
자라
정장
조합
중심
증상
찢겨
차가
찰떡
촌스럽
추운
컷팅
타제품
펼쳐
포도
포트
푸짐
풀려요
행주
화이
##니아
##장갑
##덜룩
배송지
깔끔히
더라면
스러울
냉동식품
어울릴
어울려서
얼룩덜룩
부서졌
라면서
170
나빠요
삼겹살
업그레이드
나타
내복
눌려서
는가
대략
된장
드레스
뜹니다
말린
바다
배꼽
부부
부풀
비염
세기
액션
에이
우와
유선
제입
지불
집어
천천
초딩
촘촘
카라
코트
퍼지
하의
훈련
##둥이
##패드
어서요
비닐봉
고장난
나머진
분무기
제입맛에
천천히
65
거북
검사
광어
구운
깜빡
깻잎
네유
눈썹
느낄
될까
딸랑
램프
런닝
막혀
맞췄
메이드
뭉개
비틀
생길
서리
서요
송이
수치
수술
쏟아
씻겨
야외
인대
잡아
중독
지정
초반
코스트
##어날
##면대
##ㄴㅅ
##시아
##ood
##👍🏻
##숭아
달라졌
건조대
어려워서
푹신푹신
가려워
밀착력
날카로워
굴러다니
두드러기
대리석
유치원
더라구여
ㅇㅈ
가만
결론
국민
기념
김부
까먹
납작
넘기
네영
노출
눌렀
담그
매년
방송
복숭아
상대
섭취
소요
소모
손수건
스파
심리
안장
알레
액상
이따
입문
입니까
접혀
출장
키보드
틀려요
한결
호스
흑흑
##미늄
##트리
##세탁
##은데
##시로
##겨울
##따로
정말로
마음대로
내려오
할까봐
다녀왔
줄어든
유연제
안타깝
스포츠
슬리퍼
김부각
알레르
금속
뒤틀
레고
롤러
마블
메인
모드
미러
밑창
바쁘
발려
보냄
붙혀
블로그
비스
수시로
시끄러
알아
엣지
예쁨
옮기
와사
울렁
워시
위한
유독
잠그
접이
조임
주황
체결
추워서
터질
텁텁
토끼
편백
피로
화력
👍🏻
##인데
##나요
##폭신
##래미
상품권
엄청난
들어와요
판매처
폭신폭신
날라가
시리즈
분홍색
우러나
도라지
들러붙
문지르
44
usb
겹쳐
구림
글고
급히
끝내
노니
놔뒀
담가
대추
덜한
뒤꿈치
따지
딸래미
뜨거
라구요
마구
마라
미미
별반
살펴
세사
식판
신분
십시
아보
여분
우엉
원해서
이라도
인간
일요일
중자
짝짝
쪼이
치아
탱글
해감
했으니
호텔
힘주
##버렸
##가리
##드백
##러서
##여름
##탱글
들어왔
는지요
부드러움
지워짐
느껴집니다
준비물
테이핑
방향제
최대한
했어야
구부러
끈끈이
시스템
스트레칭
브레이크
코스트코
알레르기
탱글탱글
29
38
ᆢᆢ
계시
계획
고른
근육
나세
나누
도중
될까요
드림
또는
뛰어나
물량
밀림
밤고구마
복원
부숴
비빔
선크림
소라
쓴다
아영
어묵
예여
온다고
워치
원액
유효
자유
잠기
저기
전날
절대로
좀더
줄여
지경
직장
치킨
클리
패딩
퍼프
할듯
휘청
##수거
##구매
##치마
##ad
##꾸미
##킵니다
아이패드
부러진
느껴져서
작업복
분리수거
150
괜찬아요
완성도
초등학생
날카로운
스스로
US
가공
간혹
개수
귀리
긁히
깨져요
꺼도
끊어져서
다라
닦여
단백
단독
두루
뛰어
라구
라운드
로드
마인
맡기
모유
무사
물집
믿음
볼려고
사서
사자
석류
소주
쓸려
씁쓸
악세
어휴
에스
엑스
여도
영어
요가
용지
운송
익히
인위
일체
자력
제습
준다는
지져
직전
최상
탈취
해질
흐리
##리아
##바삭
##ㄴㄷ
##건데
##닙니다
씁니다만
그렇지만
다니요
으려고요
움직여서
프린터
레이어
드라구요
남겨요
했어여
스토어
스며들
어쩐지
USB
♡♡♡
ㅇㅎ
개미
곳곳
기구
달랐
대답
등산
맛난
망사
모발
변했
생신
성품
수거
수면
수록
슴다
시커
시즌
시킵니다
실외
쓸께
아우
여부
올려서
이왕
입지
전송
정수
중복
지독
진다고
처분
청결
쳐다
통증
퇴근
피드백
학원
##리즈
##나절
##로리
##국수
##행기
##상시
##성이
아까울
중간중간
110
세정제
떨어뜨리
아랫부분
무서워서
으라는
최저가
비쳐요
와사비
2000
99
과육
군대
긁혀
네오
네모
노이즈
녹차
다닙니다
두리
드럽
라며
맡겨
매력
멋지
모터
모던
목걸이
밀려서
반나절
벌크
벌어져
벌어져서
부적
세수
손쉽
시려
시야
시끄럽
씨알
어우
연마
열탕
염증
예용
와인
유럽
은색
이물
익혀서
인정
자잘
장미
주먹
지탱
찌개
철사
청바지
치도
칸막이
토시
튼실
팔걸이
패스
한대
홈페
환장
훼손
##고생
##지도
##에요
##자루
##하니
##ㅈㅇ
##시지
##카도
##말랑
##힙니다
##랭이
아이디어
셔야죠
양념장
바삭바삭
260
볶음밥
생리대
까다로
아보카도
홈페이지
AS
걸루
꺼려
나마
내놓
넘어지
누빔
느니
덜컹
등심
뜨거워
리얼
무섭
바보
방전
블럭
비쌉
빗자루
뾱뾱
사정
산책
생깁니다
석유
수율
술안
스팀
쓰리
아메
알루
업무
역하
예방
우장
잡음
젠더
찰랑
천도
추후
측면
태도
통해
풀림
한가요
해줘
##리트
##서야
##구석
##는지
##한데
##사리
##ㅇㅇ
##저래
##무늬
해야죠
정리함
따로따로
기름때
2020
으려면
생겼어요
어찌나
줄어드
늘어날
말랑말랑
신중히
어지러
가습기
고등어
마인드
비쌉니다
술안주
ㅏㄴ
간신
그라
꺼낼
날까
널널
답례
더위
돌릴
란다
래서
려던
멈추
모셔
무튼
물감
보태
비즈
살아
선호
선생
시킴
실하
씽크
아유
아껴
야간
야광
예뻤
오븐
와야
요것
요령
이득
자른
잔향
장치
저리
절차
점심
정작
존나
주심
쭈꾸미
참나
쿠키
태어날
하필
한진
헬멧
혀서
호수
##ㅡㅡ
##진창
##퍼요
##여행
##34
##두고
그래두
인지라
피부과
엉망진창
유리병
마니파
눌러서
된다면
나눠서
가리개
마셔요
이래저래
국내산
간지러워
큰일날
신문지
접이식
뾱뾱이
알루미늄
34
가진
고춧
골프
기냥
꽂이
나용
나간
나았
넘김
담당
당김
두고
마스
명란
모름
뭉쳐서
바꾼
범벅
별론
보송
비릿
뿌려서
살균
새것
섞여서
세면대
스틸
슬프
싼값
쌓여
알코
았었
연두
오디
오토
왜곡
을려구요
잡혀서
지루
치곤
코스
큐빅
턱받이
통이
평균
푸른
허위
##걸리
##ㅈㄷ
##레인지
##산물
##주얼
##십니다
##퉁이
다는데
어야죠
지나가
벗겨졌
바지락
화장지
돌아왔
돌아다니
올려놓
속상했
어떤지
발라야
바퀴벌레
핸드크림
한다면
파우더
운전석
은근히
잃어버려서
겨드랑이
다림질
간신히
고춧가루
두고두고
알코올
85
가품
계단
계열
기어
기엔
끊김
나왓
낙낙
누워서
다기
당분
대해서
더더
더만
더운데
도어
둘러
드려야
막걸리
먹통
몹시
미친
미숫
반팔
배치
변한
변질
봣어요
뿌려도
살치
소소
수동
쉬워서
실측
썼었
아트
악기
압력
어르
얼리
여아
여닫
오이
올립니다
은박
이색
인공
자루
장기
장만
장시간
중학생
짠맛
쪼개
찬물
초콜
침구
칼로리
특상
평상시
하여
할수록
화환
힘줘
##장치
##라면
##ㆍㄱ
##주머니
##끈적
무거움
겨울옷
돌아오
흘러나
끈적끈적
갈아먹
보드랍
최소한
스피드
파스텔
수영복
소용없
주황색
미숫가루
600
갓김치
걸러
고여
그릴
까맣
껴요
녀석
늘어지
덧대
덩치
데워
든다고
듬뿍
라임
라던
루즈
립스틱
막히
바벨
뻐요
세대
쓸데
앙증
앞면
에러
여야
역대
왔다
외장
요요
원가
을려
잘랐
전면
전환
조악
조음
증정
진리
진해
집중
출조
출시
커도
켤레
통하
투성이
한잔
할게
해당
해놨
현장
화려
흐릿
##아버지
##바구니
##ㅁㄴ
##은거
##그냥
##끼리
##티지
들어올
전자레인지
둘째치
스마트폰
완충제
멀티탭
문질러
메이커
나타나
단백질
걸어도
겠죠
고지
글구
까봐
꺼져
날린
내림
담배
당면
도로
두어
라길래
말렸
면봉
미쳤
반사
반값
배수구
버블
번갈
보상
분기
뽀득
성질
세심
소품
순해서
쓰임
쓴다고
어째
연속
열려요
오줌
옮겨
왁스
왕창
욬ㅋㅋ
육각
은가
일주
재생
저장
적용
정교
조화
졸라
즐거운
차갑
타월
통과
통운
평생
피아
함량
해짐
##고리
##아여
##어짐
##걸로
##ㅅㅇ
##으며
##ㅏㅓ
##냄새
##dj
습니다요
다시피
건데요
써야죠
움직여
번거로웠
##ㄷㄱㄷㄱ
늘어난
굴러가
일어났
메모리
2018
제주도
슬라이스
바스락
이따위
레이어드
답례품
더더욱
어르신
48
800
TV
거친
건드
경첩
공병
과연
구울
까요
놀람
느려도
담부
대나무
동작
두깨
드려
드립
드셨
딸려
뚱뚱
말랐
목재
몸매
바쁜
밝은색
배우
버텨
범퍼
분말
뽀송
뿌릴
서림
소식
손세탁
쓰였
연필
영화
온다
완화
워머
을껄
이라
이외
이뻤
이래요
인디
잔여
재대로
접혀서
졋어요
주전
지원
짭니다
체중
쳐서
캔디
파워
팔뚝
패션
풀렸
핏물
햇볕
허허
형식
##어졌
##이라
##하네요
##ㅎㅇ
##나다
##르륵
##만족
##덜렁
##생각
##뽀송
##갔다
##텐데
##팽이
##헐렁
추천요
아무거
올라와
올라와요
기름지
겨울철
와이드
눌러야
2500
헐렁헐렁
튀어나온
고추장
덜렁덜렁
구석구석
총각김치
ㅠㅡㅠ
화이팅
악세사리
당분간
뽀송뽀송
가디
갈려
감칠
걸어
경화
계산
곡물
관계
금가
기종
나아
나빴
노력
눈금
단가
달팽이
동전
두통
둥근
들려요
들립니다
땡기
뜯기
라운
라켓
러요
레시
마요
매듭
맥스
메이크
면접
명시
밀크
버스
본사
볼록
볼려구요
부지
부르
비쳐서
빼먹
뽑히
상표
설겆
신나
썻어요
아쿠
안개
알림
열기
예쁠
왔었
욕먹
육포
자켓
장수
제철
진다
추울
컸으면
토스트
틀림
파마
파여
퍼플
한통
할걸
##버님
##버려서
##바퀴
##사이
##스팅
##까슬
##상도
##린다
##린다고
##처리
##푸석
습니다만
기다릴
습니더
망가져
해외여행
튀어나와서
##ㄷㅅㄷㅅ
따가워서
현관문
푸석푸석
보리차
그걸로
탄산수
이즈라
구우면
흡입력
까슬까슬
살펴보
왔다갔다
피아노
설겆이
감수
건만
기초
기침
꺼냈
꼬막
녹이
능력
당시
뒤늦
듭니당
로서
리무
만약
매쉬
반납
방충
별다른
보충
불로
블링
비행기
빈약
사계
새치
소세지
순삭
실크
쓰기
어정
어치
역쉬
요금
원한
이기
이내
이염
임다
졋네요
조수
좋아요
주행
착화
코디
크리
통신
포대
필드
하얘
학생
해져
헹구
호두
혹해서
환하
후드
흥건
##아삭
##거나
##하하
##라미
##트라
##너스
##같아요
##df
##̣̣
세탁소
지워져서
##아이스
아삭아삭
망설이
헷갈리
비닐봉지
잡아당
가만히
무사히
아메리카
앙증맞
가디건
메이크업
사계절
어정쩡
조수석
54
94
가닥
감겨
고개
과즙
꼬치
꾸미
난다는
남아
내렸
눈가
늘리
늘려
들여
로지
머신
못썼
물고기
믹스
바랬
백색
번짐
범위
보장
부엌
블라
세라
스키
아동
아내
안성
애벌레
앨범
어딘
역한
였으면
영업
올겨울
위주
유의
을래요
이루
이때
입안
적어도
조림
지름
차원
철물
체격
초파리
칼집
텐션
파프
포만
표지
한우
혼합
혼났
##미리
##아찌
##어링
##구나
##이스
##이불
##감사
##ㅈㄴ
##조개
##우나
##보기
##까끌
##두기
##그램
##쫄깃
##푸라기
##줘야
##팩트
들어와
어울립니다
부서질
모기장
맞춰야
가져갔
드릴려고
휴지통
270
지우개
사포질
마블링
연마제
아쿠아
방충망
포만감
good
거라
게시
고쳐
괜차
교육
깜찍
끊겨
끓였
나물
누군
다루
대기
도금
동원
두부
라벤
리퍼
리프
리티
명품
바꼈
배부
버벅
변함
부대
부산
빵점
사타
살께요
상해
섞인
신지
신다면
싱거워
써져
아령
어릴
언젠
옐로우
유일
을라
작품
제차
쭈욱
촌스러
충실
칩니다
크롬
터집니다
통일
펄이
페브
펼치
플레
피치
핑장
한계
한건데
헹궈
호호
호기
힘없이
##드득
##ㅁㅇ
##조림
##조각
##사람
##사각
##저곳
##도둑
##멋대로
달라지
고무장갑
후회막
찌그러졌
종이컵
어두워서
페인트칠
이곳저곳
라이너
샤워기
265
잠금장치
까끌까끌
부탁드려요
클리너
아메리카노
촌스러운
33
xs
ㅇㅏ
ㅇㅣ
ㆍㄷ
감바
거꾸
건들
걸기
계기
계신
고를
과숙
군내
기우
긴가
깃털
깍두기
나감
눌린
다려
달걀
독일
든다
듯해요
마디
맡아보
밋밋
발라서
밥도둑
벅스
번져
보증
뽑혀
사유
색소
서울
성격
세팅
송사
스펙
시안
시즈
실속
쓸수록
앞머리
앵글
약통
어처
어쨌
어려서
여리
을수록
이요
인거
인줄
인조
인상
입음
작아지
잘리
잘사
잠겨
장소
절약
제공
주세
주세요
쪼여
참조
찹쌀
처치
철판
층간
큐어
키트
키위
타임
통기
특품
틀려서
파이프
합시다
화끈
확장
회복
후면
##좋아
##다녀
##이다
##기름
##망치
##ㄴㄹ
##ㅇㄹ
##ㄱㄷ
##소식
##룽지
입니다요
여름철
아까웠
휴대용
으려나
편한데
눌러붙
드라이아이스
걸린다고
드릴게요
갈라진
흘러내려
힘든데
늘어남
220
조여도
쫄깃쫄깃
부딪히
첨가물
부탁드립니다
파프리카
호기심
거꾸로
ㅇㆍ
가나
감당
강해
거름
거뭇
고선
공주
구마
까스
까매
끝단
노즐
누우
누룽지
다자인
당했
덩그러
데로
두말
맙시다
맞음
멋있
무우
무침
바란
밤새
비춰
빈티지
사방
사다리
순대
쉬워
실사
아구
아버님
양고기
얼려서
왤케
운영
원인
원해요
유자
유행
의견
이삭
인한
자면
적힌
전라도
제단
중기
진품
쭉쭉
차돌
챙기
청정
축구
카레
커팅
케일
쿠팡
퇴치
퓨레
할아버지
할텐데
현대
회수
흔한
##대기
##도리
##보단
##르트
##10
##갈이
##멘트
배송굿
사이사이
다리미
지금껏
벗겨질
가벼운데
장난치
느껴졌
프로그램
망가짐
가까워
255
갈아주
225
덜렁거리
문구점
지켜봐야
다용도실
하하하
바깥쪽
겨드랑
차가운
부적합
감칠맛
철물점
사타구니
700
cj
ㆍㆍ
가르
개뿔
건진
건반
겨자
겹쳐서
구도
구경
군더
금색
김밥
꺼졌
꺼짐
꺼져서
끓여서
끝나
나일
나비
넥타
닥터
닫힘
덤벨
도정
도와
돈값
두르
드신
들쑥
따라서
땜시
땡겨
로밍
링크
막창
말끔
매치
문젠
반디
반점
벌리
베베
복구
브이
비주얼
사악
서너
수제
싸이트
쏠리
아디
양산
어유
업소
에기
에코
엔진
여지
연주
열감
예비
완제품
울트라
웨딩
유해
유광
이니
이모
이탈
일상
임시
잇몸
자네
잡혔
장바구니
저령
제격
주입
지울
직행
진다는
질겼
질렀
짭짤
카카
코너
투리
포즈
하체
한약
합니더
호주
화상
황금
후추
##에스
##어여
##이션
##가격
##감자
##반찬
##런지
##배기
##두루
##커피
##그릇
##것도
##클로
##날쑥
##볶음
만족감
상품명
들어온
ㅡㅡㅋ
고무망치
블랙박스
흔들려서
흔들거려
중국어
가장자리
올려도
부서짐
15000
미끄러져서
끼워도
구겨진
다녀서
안경테
140
끊어짐
떨어뜨렸
외관상
어지럽
가려움증
유니클로
삼각대
코코넛
##👍🏻👍🏻
다라마
두루두루
일주일
잔여물
라벤더
군더더기
나일론
들쑥날쑥
31
ㅡㄱ
갑갑
건더기
걸치
경제
계량
곤약
구만
근대
나아지
내역
냉기
노노
농도
니퍼
다쳤
단종
달고
담갔
덧신
데우
데코
독특
뒹굴
드실
들이
딴딴
러그
렌치
마나
마땅
맛집
매각
메밀
면은
모른
물김치
바짝
바랜
박히
받치
발효
베트
베스트
벨벳
부시
불고기
브로
비율
산다
상추
상할
소자
소중
쇳가루
수신
숩니다
쉐이크
스무
실력
쓸리
아자
아함
아토
엄두
여친
여섯
옆쪽
웨어
유막
이랬
입혔
자요
잡곡
장마
쟁이
전해
접수
접속
정기
조여서
좌석
주인
증말
지날
질까봐
철분
치료
카본
칼날
퀄러
킹사이즈
탁한
터져요
통도
통해서
튀겨
퍼센트
펜슬
풍기
해피
허나
헐거운
현금
흑미
##에도
##드시
##걸레
##in
##정리
##ㅇㄱ
##여리
##라이트
##ㅂㅅ
##런스
##무지
##맞춤
##꽂이
아요오
들어옴
연결부
귀여운데
흘러요
가려워서
갈아타
갈라져
할려다가
봐야겠지만
간지러워서
잃어버렸
아닐까
##ㄴㅇㄹㄴㅇㄹ
십시요
까다로운
안성맞춤
여리여리
47
900
xx
가림
거뜬
고시
공판
구글
구할
귓볼
기업
기성
기보단
꼬매
끝물
낚였
남음
내릴
다수
다치
닭고기
대여
돌려야
동글
때려
뚫리
라니까
로라
무맛
무배
밑바닥
바사
바램
방한
벤치
벽걸이
보안
비뚤
빗질
빵꾸
생김치
소진
솔솔
수확
스케
쓸까
아웃
알록
어라
어의
어긋
어중간
열선
온몸
육질
인요
일치
자재
잠들
장작
장아찌
적립
제때
졌으면
주차
지하
지대
지압
진열
차안
초음
출국
커터
태열
파운드
펑퍼
페달
포토
품목
피싱
피크
하부
한방
한숨
헤지
확연히
힘줄
##버스
##어놓
##이도
##이네요
##네여
##해야
##라워
##프레
##세척
##디션
##소문
##같이
##커트
##길이
##ks
##쫀득
##댕이
다른데
머리숱
충전재
이제서야
여행용
개인차
겁나게
망가진
168
밀리지
외출용
쫀쫀하
끈적거리
갈라짐
라이터
돼지고기
쓸모없
배추김치
크로스
수영장
##ㅈㅂㅈㅂ
결혼식
상대방
하여튼
힘줘서
레시피
세라믹
누군가
어쨌든
카카오
베트남
펑퍼짐
ㅌㅅ
ㅏㅓ
ㅡㅠ
가운
각외
걸으면
검품
게끔
고고
구찮
국제
그럽
긁혀서
긴데
김장
꽝꽝
낍니다
나쁨
나쁩니다
낮잠
다스
단차
당하
도망
듀얼
디지
뚫려서
레트
로운
로얄
로켓
마모
마그
만만
무드
무색
물어요
밑판
바가지
반드시
배려
밸런스
부작
분도
불리
불러
뷰러
뺍니다
사셔
사셔야
삭제
샤프
서서
선별
손해
송지
스톤
스윙
실화
실온
심히
쓸려구
아늑
않되
앞전
양해
얼렸
에프
역류
연해
오빠
온통
올린
외형
욬ㅋ
유두
장농
즉시
지폐
쨍하
쭈굴
찌든
차서
차종
착시
청량
큰데
통보
튜닝
파크
팔목
푸드
퓨어
핀셋
핮니다
해준
허니
혀요
현저히
혹은
홑겹
흥미
##마나
##반품
##너너
##토마토
##포도
##겨우
##발가락
##90
##딱지
##투명
##별로
기대치
운동화
두꺼우
두꺼웠
10000
가벼우
베이직
아야지
다이어리
165
편해졌
페이스
글씨체
거슬려
말라요
무서워
드러나
까만색
미끌거리
한가득
막대기
수도꼭지
스카프
ㅜㅡㅜ
콜라겐
살아나
담당자
후회막심
넥타이
퀄러티
초음파
부작용
52
ㅇ니
ㅌㄱ
가열
감도
개업
거들
걸어서
게살
고루
고통
곡선
공용
구스
극찬
끝판
끼운
나베
났었
놔둬
누리
단선
단열
담근
당뇨
대쉬
도배
도자기
독한
독해요
됩니당
둥둥
디스크
뚫린
런지
레인
로부터
루프
리스
말랭이
망정
맞출
매합
멋진
몇몇
모빌
물총
물받이
바랄
바닷
반영
반투명
발향
발찌
방콕
부추
비니
빛나
살색
세우
소다
쉰내
스터
스킬
습도
식용
실행
싱거
쌀쌀
썻네요
쏙쏙
쏠려
쓰여요
아로
압출
앞코
약할
언능
엉키
열림
온전
온지
온열
우우
원산
유사
으루
을라고
음선
의류
이질
자랑
장보
재재
저것
전신
점착
접합
조끼
주간
쪼끔
찮아
최신
취급
컴팩트
큐브
탁자
트라
틀어지
폭발
해라
해뒀
해상도
향이
흘렀
##아쉽
##바이
##어용
##수증
##이디
##er
##조아
##ㅇㄴ
##란히
##을때
##레탄
##시들
##그라
##던데
##상품
##12
##뎅이
##닐라
생각날
생각없이
실망감
ㅡㅡㅡ
깨끗히
이제껏
보관함
나무판
흔들거림
움직여요
으려니
좋아할
줘야지
빠짐없이
다녀야
할려다
먹여요
타이머
돌려먹
동그라미
방울토마토
부자연
무너지
반대쪽
쫀득쫀득
시들시들
바이올
고마워요
면도기
열무김치
식기세척
어설프
빨개지
운송장
탈취제
부지런
어딘가
리프팅
어처구니
원산지
식기세척기
78
̆̈
ㅇ요
ㅉㅉ
ㅗㅎ
ㆍㅅ
개고생
겉모
겸용
계피
공짜
교복
구비
구라
그제
급여
기관
기운
길거리
깜박
껴도
꼬이
꽁꽁
노우
노라
누를
늘려서
니자
다더니
단면
닭갈비
담요
담기
댕댕이
더군
도려
됩니까
들려서
땀나
떡하니
떨림
뜨끈
라는데
리코
마법
마켓
메시지
면적
모바
목도리
못써
몽땅
무량
무언
물려
물렸
미루
미끼
미술
발기
버틸
병아리
보수
보강
복사
복합
부채
부결
비데
비상
뿌린
쁩니당
삑삑
사리
사망
산다고
생과
손등
수십
순식
쉬운데
스툴
슴니다
실험
쓸지
아작
안네
안사
어리
어떠
어댑
역해서
연동
올려요
올려야
요고
원활
을께
이이
이빠
입소문
장거리
저울
저절
절삭
조어
조였
조항
주니
즐거
즐기
쪽쪽
착착
착색
찮은
참외
초점
추출
취미
켜졌
파라
패브
플레이
할랍니다
해줌
해선
해집니다
해버려서
휴일
흐트
흐느
히히
##버리
##물렁
##아먹
##장고
##거칠
##드기
##자주
##네용
##조아요
##나물
##러지
##러치
##오징어
##받침
##ㆍㄷ
##달록
##그락
##애플
##카라
##67
##놓고
##fa
##dk
##절기
##릭스
##냉장고
입니다만
다른가
아니면
기대감
들어옵니다
올라서
올라옴
나사못
기름진
김치냉장고
망가질
겨우겨우
세척력
175
다녀오
이어서
염색약
번호판
갈라져서
거칠거칠
수선비
끊어질
파스타
동그랗
물렁물렁
2017
망설였
오리지날
요구르트
대단히
정수기
이물질
초콜릿
주전자
블라우스
배부르
부대찌개
페브리즈
플레인
보증서
지날수록
알록달록
##프레소
송지연
이질감
순식간
어댑터
저절로
패브릭
흐느적
58
in
ㅓㅇ
ㅛ어요
ㅡㅅ
거즈
거절
건대
공급
국자
그을
급할
기미
기입
까졌
끊겨서
날려서
넘치
넘길
네임
느낍
니스
대문
데기
동치
둬야
딸깍
라라
래쉬
러브
리빙
만졌
만능
말려요
맞물
매워서
맨발
멸균
못사
무진
무성
묻혀
물렀
물걸레
뭉침
미관
바닐라
반려
발아
밥반찬
방탄
베드
베송
변해
변해서
별거
봣지만
부스
불매
붙임
빡세
살려
삼키
선도
소지
수축
순환
스치
스탈
스커트
시멘트
신호
실감
쌉니다
쓸려서
씁니당
아귀
어딜
업데
엉켜
엘이디
오우
오오
욯ㅎ
웃음
유키
을걸
응가
인도
자수
접힌
존재
줄일
지점
질도
짜린
쫄바지
찌르
차례
차액
책꽂이
처지
철재
체감
커넥
큐티
클린
토하
토할
투어
패널
핑갈
하아
하수구
향긋
험하
홍조
##다나
##바람
##바르
##구이
##가시
##조리
##조끼
##ㅓㅇ
##보내
##보송
##줌마
##둘레
##생활
##re
##찰랑
##듬성
라서요
지나치
느껴질
속상합니다
158
미끄러짐
약한지
나온다
버릴까
163
만드셨
무지하
더러워서
나눠져
소독기
괜찬네요
헤드셋
반짝이
남겨도
음료수
엄지손
박살나
파인애플
번들거리
들떠서
##ㅁㄴㅇㅁㄴㅇ
집어넣
소모품
찰랑찰랑
마스카라
보송보송
통신사
스키니
거름망
차돌박이
그럽니다
마그네
모바일
무언가
느낍니다
업데이트
커넥터
46
KG
bb
pc
ㅇㄻ
ㅏㅇ
ㆍㄱ
가릴
가랑
각자
간간
갈치
갔다
개념
갱년
걸요
겉도
겉절
겉보기
견디
결착
고약
공룡
과실
구형
구명
권장
기니
기절
꾸겨
남색
남긴
내놨
냅뒀
넘나
농약
답글
더치
도요
도트
동서
듬성
등급
뚤려
마찰
맞춘
메디
목소리
몸체
미만
반해서
방해
배탈
배출
벙벙
베게
벽면
변도
보푸라기
복도
불닭
비둘
뽀드득
사니
사태
사출
살림
상부
샤브
서인지
설익
섬세
소통
속치마
손색
순서
식전
신데
심할
싱거운
쌍둥이
써왔
아선
아줌마
악력
악보
악취
안마
알리
어쨋
옥상
온다는
왕복
요일
용시
우편
우레탄
움푹
원판
위에
육즙
이쪽
익일
일품
일지
잊어버
잔디
잘린
잡힐
잡힙니다
장롱
장조림
접하
제도
제본
져왔
주무
줄였
지고
지직
직각
직업
쩍쩍
창피
치석
칭칭
칼자국
커졌
코어
코랄
콘크
크류
탁구
탈출
토막
티스
펼쳤
피하
할라
함유
합사
해바
홍삼
화물
환절기
흐려
흡족
##어오
##거뭇
##이에요
##가죽
##하면
##ᆢㄷ
##ㅍㅍ
##마이
##마개
##ㅂㄱ
##ㅏㅇ
##트롤
##ㅌㅊ
##ㅌㅅ
##데이
##새우
##포장
##했는데
##투리
##말까
##샤브
##js
##뚜기
으로서
다시마
찢어집니다
올라감
확실이
간편히
가방끈
내려놓
1200
으려는
다면서
지지직
프레스
회색빛
나이스
늘어났
붙일려
보온력
보온성
어떨까
드린다고
280
잃어버릴
찾아가
더러워지
스카치
절단면
360
##345
명란젓
연두색
절삭력
갱년기
겉절이
비둘기
샤브샤브
어쨋든
콘크리트
해바라기
63
so
ㅊㅊ
ㅊㅂ
ㆍ느
꙼̈
간섭
간다고
개시
개떡
건물
겉돌
겉옷
고가
고퀄
공식
공사
관자
교회
그물
그어
근막
기감
긴팔
까말까
깜깜
꽉차
끌리
나뭇
나갑니다
나란히
네비
노무
녹물
녹여
눌림
다요
다닌
단정
단말
대구
대칭
도수
도서
동료
뒤척
드만
드레
드셔서
들림
디만
따른
땀띠
락앤
러서
른배송
마당
만질
말릴
말투
망쳤
메리트
멘붕
몰딩
묻히
뭘까요
미숙
민족
바탕
바베
박혀서
밥솥
방풍
번져서
볼께
봉전
봉돌
부어서
불소
빛깔
빨려
뿌옇
사후
산모
새겨
색칠
손재
수산
습관
시용
시일
시술
시보리
식물
식겁
신다는
아지
아휴
아퍼요
알람
앞치마
양품
연말
열린
영롱
오트
오돌
옮겼
왔으나
운행
음량
응답
이지
이브
이웃
인천
인내
입학
자바
자투리
작두
작살
작렬
저게
저급
저항
적정
전후
절개
정해
정량
정직
제게
제겐
주려
주택
줄지
중성
줫는데
쥐포
쥬얼
즐길
짱나
찜질
착해요
청양
체질
치워
치과
침낭
캐스팅
컨트롤
퀄이
클리어
키워서
틀어져
패디
퍼석
플로
피팅
하심
한포
한답니다
햇밤
했어도
허옇
헌데
회로
후방
훈제
휘어진
흠잡
희망
힐링
##다수
##다란
##아용
##이뻐요
##하기
##는대
##iy
##마일
##나가
##ㅓㅏ
##우우
##비슷
##라이프
##대요
##ㅂㄷ
##들여
##도우
##트려
##시원
##츄럴
##삐걱
##못했
##민가
##ff
##팬티
##예요
##뽀득
라고요
더니만
아기자기
이런가요
문제점
케이크
자주자주
접착성
부드러우
지워졌
지워져
지워질
붙여져
##라이너
느껴짐
내려감
미끄러져
미끄러운
다녀도
스트로
스트라이프
중고품
할려구
반짝거리
목욕탕
우려먹
2019
미역국
크리스탈
모를까
카키색
물어뜯
삐걱삐걱
벌어져요
멀리서
한달전
십시오
뽀득뽀득
계기판
긴가민가
통기성
해준다
기관지
동치미
무진장
듬성듬성
단말기
락앤락
바베큐
손재주
오트밀
49
56
6000
72
88
kf
ㅌㅌ
ㅏㅁ
ㅓㄴ
ㆍㄴ
간다
개요
개털
거시
고치
고데
공갈
곶감
광색
구해서
귀퉁이
규조
그전
기도
기부
기편
깎이
깡패
꺼만
꾸며
꿰매
끄떡
나면
나이트
냅두
냅킨
너비
누나
눕혀
다미
다거나
닦여서
대가
대도
던졌
도포
될까봐
뒤죽
따구
따져
때메
뜯긴
라이프
랄까요
로써
로젠
로워요
루어
릅니당
막혀서
망함
맞이
매니
머그
멈춰
면세
면역
명함
모아서
모퉁이
무한
무결
물먹
므로
미디
밀대
박박
반쪽
배드
백미
봤었
브리
비밀
비칠
빌려
빨르
사시
사막
산소
살게요
샌드
생명
생으로
선글
세븐
섹시
소시지
수전
슬퍼요
슺니다
시어
시래
식이
신겨
실청
십자
쓰래
쓸라고
아나
아르
아부
알싸
약콩
억울
엉터리
역활
예술
와중
왠걸
우글
울림
웟어요
웨스트
유충
으리
으셔야
이드
이스
인차
인체
일리
잔가시
잠수
장가
장비
제한
조마
줄여서
중품
즐거워
직후
진못했
짜도
짤라
찍혔
참기름
체어
치실
컵라면
코튼
코딩
쾌적
크릴
크린
큼지막
탁하
탐내
태양
터무
툭툭
팔꿈치
평타
포스트
하우스
할라고
해면
해산물
후미
후줄
희석
흰머리
##아니
##아주
##아내
##장판
##어야
##인다
##sf
##sad
##마니
##나서
##라라
##ㅂ니다
##로즈
##게티
##보라
##었는데
##패스
##빠지
##무소식
##두둑
##밀리
##ns
##te
##박혀
##뚜껑
에서부터
다른지
진짜로
떨어트리
건지요
그런지는
그래서인지
기다려도
올라온
써야지
붙여도
어려우
무난히
장난아
유리창
돌아감
돌아갑니다
내려와요
1500
단단히
스크린
만드세요
무지개
조심조
괜찬은
고추가
전기세
실내등
130
부셔지
조각조각
프라이머
하이패스
간지러움
드러워
두드리
슬라이딩
삐걱거리
거래처
벌어짐
작아졌
작아져서
뜨거워요
복원력
어지러워
별론데
쓸데없
거뭇거뭇
누리끼리
식용유
##678
무성의
큐티클
구명조끼
작두콩
규조토
선글라스
터무니
후줄근
TT
co
ㅌㄹ
ㅡㄴ
각지
각오
갈릴
강함
강의
건포도
고이
고체
괞찬
구슬
근무
긁혔
금이
기쁘
기록
길쭉
깊숙
꼬박
꽃잎
끌어
끓일
끼이
날까봐
남녀
낮추
내립니다
놀랍
느낀
늘어져
단어
단체
달그락
닭발
대놓고
덩이
데리
데여
돌기
돗자리
두터
두상
둥글
뒤지
드럼
들여서
라다
렌트
루고
리스트
마름
막힌
말려도
명확
모임
모레
목부
묻혀서
밀립
바리
바인
박시
반면
반질
발란
밥상
방부
배고
배소
배선
버렷
변신
복부
본래
부과
부디
부랴
분량
불룩
불판
브리즈
비대
빤짝
빼내
뿌려야
사선
사양
사운드
색모
생식
서버
서기
서툴
서류
섞이
세도
세모
세밀
소포
손자국
수많
숯불
쉬원
승질
시세
시설
시크
심정
쌓이
쏠림
쑥쑥
씀니다
씌웠
아리
안구
앞두
야들
어짜
얼린
여여
여주
역겨
영향
영수증
오바
오해
올여름
욬ㅋㅋㅋ
욯ㅎㅎ
우롱
유목
육안
으깨
으스러
인하
일시
임의
자료
자를
작용
저러
전식
전골
점검
정가
젠장
족발
주저
주도
줄자
중과
지구
지가
지기
직송
진득
집사람
쪽지
찐하
차렵
철봉
청국
초대
초밥
최강
최초
최적
칠판
칼칼
코일
쿼트
클래
클까
타리
탁전
탈거
테니
투자
티타
파편
퍼져
페어링
푸쉬
풀린
풀어져서
품명
피클
필라
하리
하기
하난
항의
해치
햇감자
화한
확대
확보
휘어짐
힘없
##완전
##니카
##지지
##어찌
##실패
##gh
##ㅍㄴ
##ㅈㄹ
##ㅈㄷㄱ
##더라
##우니
##반질
##라지
##라메
##ㄱㅈㄱ
##래서
##접착
##플레
##세로
##ㆍㄴ
##할지
##al
##돌이
##그래도
##던지
##11
##송이
##박죽
##랙스
##문에
##넘기
##학교
##코드
##😍😍
##풍뎅이
튼튼히
여름옷
피부염
다니까
무거우
다이슨
어려운데
돌아다녀
모자르
다행이
내려앉
난리나
만드신
178
183
넘어갈
넘어갑니다
사라짐
더러웠
가져오
걸린다
된다니
온도계
계란찜
튀어나옴
쫀쫀한
타이트한
조리법
실내화
뜯어먹
떨어질까
가로세로
먹일려고
ㅇㅇㅇ
날아갔
일어날
아마도
시리얼
미역귀
찾아봐도
망설여
어려웠어요
##아아아
마크라메
스카이
👍👍👍
비닐봉투
할까봐요
뛰어난
시려워
오토바이
##생각보다
장수풍뎅이
로지텍
##감사합니다
괜차나요
문젠지
어긋나
더군다나
쪽쪽이
미관상
인내심
뒤죽박죽
시래기
조심조심
청국장
010
39
42
59
98
9900
ㅌㅊ
ㅓㅓ
가입
간절
갑오징어
걍그
걍씀
거이
경사
경량
계좌
계세요
고로
고대로
곡면
공유
공복
굴비
그라인
꺼칠
끌림
끼익
나방
난방
노와
노령
녹음
농장
다님
단위
담긴
도데
독서
독해서
든가
들쭉
디스
따스
따르
땡큐
라바
레알
레벨
렉스
릅니다
리라
리치
마루
마커
마약
맡겼
매시
매주
먹히
메론
모여
목살
못지
무가
무작
문화
물줄
밀푀
밑면
바이크
바코드
반반
발사
방바닥
배수
배성
벌려
벌어진
변이
보자기
봉선
불찰
불러서
비위
빗물
삐딱
삐뚫
사생활
산수
상이
소감
수염
순수
스니
스랑
스팸
슬슬
시동
시대
시려서
식단
식빵
신가
싸여
쏟아지
아하
아울
아연
아뇨
안대
안시
안습
야자
양도
여쭤
연고
염이
옻칠
육아
은행
음다
의도
이가
익지
일까
입니더
자용
잔소리
제자리
제멋대로
졸업
종량
주지
지니
지질
진드기
찰지
창틀
쳐야
초심
초이스
카니
칼슘
커지
코끼리
쿨러
큰아이
키워
키즈
키조개
타카
통관
튀긴
틀어져서
파악
파셨
패밀리
팬츠
페인
페퍼
펜촉
폰트
폴로
표정
푹푹
풀릴
풀립니다
프릴
필리
필링
하비
한게
한듯
한판
혈압
호일
후지
흑당
흘려
##다시
##아쉬
##어질
##이ㅏ
##추천
##기도
##id
##ㅁㅎ
##ㅈㅎ
##조마
##빼뚤
##ㅇㅂ
##ㄹㄱ
##ㄱㅅ
##맛이
##래지
##플러
##세린
##르고
##르츠
##방울
##타페
##그런
##붙이
##주문
##내미
##빨리
##짜증
##ㅑㅐ
##봉투
##ow
##역시
##ro
##샀는데
##씁니다
##렉스
##탓이
사이다
아이라이너
시켰었
아쉬워서
전화기
세탁실
올라갑니다
비싼게
부드러웠
써야할지
다이아
지난주
내려와서
발라져
발라도
으려구
##ㄴㅇㄻ
177
어찌어찌
안경점
더러움
완벽히
잘라야
괜찬은데
제조사
할려면
그럴까요
오리털
가위질
늘어짐
거슬립니다
삐뚤빼뚤
기울어져
심해져서
압박감
나빠서
찾아볼
비비고
자취방
의외로
까다롭
어설퍼
누런색
보인다고
알아볼
비빔밥
쳐다보
움직여도
밀크티
게시판
거뜬히
사셔도
ㅇ니요
도려내
짜린데
면역력
조마조마
포스트잇
반질반질
어짜피
유목민
도데체
밀푀유
종량제
필리핀
64
CJ
XX
se
tv
ㅇㅀ
ㅍㅍ
ㅏㄹ
ㅏㅣ
ㅑㅐ
감탄
거랑
겹치
경추
고용
고사
곰돌이
곱슬
공원
공중
과한
구르
구별
그로
글라스
기만
기달
깔대
꺼끌
꺽이
꼐요
꼬임
꽂히
꾸밀
끄러
끄덕
나눔
나이프
남김
납땜
냉이
너저분
넘쳐
녹여서
놀래
누웠
눈부
는구나
늘러
다구요
달아보
닭다리
당신
대안
던져서
데스크
도루
되직
들릴
들렸
떠먹
라곤
로스
마일
마운
막막
만시
맨투
머무
멋대로
멍든
멜로
명태
모이
모라
모시
모닝
문후
바야
반듯
반절
배불
버무
벤트
벽돌
볼랍니다
봉재
부스터
분하
불호
붓기
비쌌
빗겨
사본
삼다수
상사
색은
선정리
설계
세부
숄더
수수
순해요
슈즈
슥슥
슬링
시림
시점
시선
싼타페
써봐도
쏠려서
씌울
씨앗
아실
아모
아카
안후
애서
애정
얌전
어는
어딨
억세
언급
얼추
에오
여럿
역해요
열빙
열립니다
예뿌
오동
오묘
오차
올께
옮길
완숙
외식
요걸로
요플레
우니
우아
우울
울리
원통
원해
윗면
유인
유난
음직
이란
일전
자물
자자
자란
잔머리
잠잘
잡티
재구
저걸
전시
절임
절기
점성
조일
조종
주르륵
중지
줫어요
즌데
지색
진미
짜장
찔리
착력
착전
착면
체온
최하
취해
치는
침전
카트
커야
커다란
컨디션
케잌
코리아
콜드
콩나물
큰지
타로
타밀
태풍
테팔
통사
튕겨
틴트
판도
펭귄
플래
플라워
하모
하중
한단
한편
한눈
할래
함정
해두
해소
해먹
혈당
호흡
홍시
황토
훤히
##물컹
##다닥
##리닝
##어하
##어내
##이랑
##가을
##실망
##네즈
##근데
##기가
##동글
##ㅊㄴ
##진짜
##재구매
##ㅓㄹ
##ㅇㅎ
##오ㅡ
##오카
##야들
##로이드
##싸개
##디오
##데요
##부랴
##커스
##카리
##퇴르
##떨어지
##케이
##탄올
##콜리
는데두
ㅠㅠㅜ
이상실
조립식
아무렇
달라도
봐야지
그랬나
바지통
지워진
202
비슷비슷
브라질
가려져서
편한지
보낸다
구겨짐
174
넘어질
사라져서
이럴까
레이저
사기전
갈라졌
전자파
빠진다고
친정집
삐뚤어져
따가운
프라이팬
상관없이
파스퇴르
일어납니다
사각사각
라기에
보일러
쓰러질
우려내
무너졌
무너짐
아픈데
일일히
보인다
에이에스
깜빡하
쏟아져서
구부러지
##ade
에스프레소
시커멓
두리안
초콜렛
쓸데없이
이니셜
이탈리아
브로콜리
동글동글
도망가
서서히
아로니아
장보관
##그라들
티스푼
드레싱
다미아
바인더
발란스
부랴부랴
야들야들
클래식
테니스
카니발
맨투맨
열빙어
자물쇠
하모니카
37
43
53
57
82
LG
LT
off
ㅇㅓ
ㅓ요
ㅜ너무
가가
가락
가심
가려서
강제
강했
개꿀
거렸
걸죽
검지
겅이
경향
고발
고온
고향
고쳐서
골지
공휴
괜츈
구해
구했
국수
굴리
그늘
그쪽
그랴
글리
깔려
껍지
껴야
꼭꼭
꾸역
낑낑
나두
나뒹
냐는
너모
놨다
놨다가
누드
느릴
는진
닌깐
다네
달비
달려서
대강
대란
데쳐
도안
독제
돋보
돌이
두병
뒷굽
뒷다리
드니
드려서
드려도
드로즈
떄문에
뜨개
랜턴
레버
려니까
리드
리알
리프트
막힘
만한
만조
만적
만듦
말림
망할
매너
매끄러
맨들
맹물
머니
머금
먹거리
멍들
멍게
모카
무인
무더
물류
미트
미싱
미키
바세린
박힌
변해요
볼수록
봣더니
부력
분류
브레
빈다
빼놓
뿌셔
사슴
사셈
산다는
살구
상체
상승
상온
새롭
생크림
선전
소름
소켓
솜털
수돗
숙이
숙면
스노
스와
스쿱
시청
실비
실시간
십쇼
싹싹
씹혀
아퍼
아름
알파
양식
양손
양옆
언더
엘지
엠보
여어
연보라
열매
열쇠
오로
오타
오크
오뎅
오마이
온수
올인
요추
요런
요게
용액
우여
워싱
원상
윈도우
으악
을시
을랍니다
이듭
일그러
임부
입주
입덧
잇고
작지
잔량
잔상
잖아
잡힌
잡소리
장력
장남
쟁반
점프
제봉
주워
주관
줄넘기
중순
지리
지밀
지멋대로
진즉
짓눌
찢기
차체
착즙
채워서
철가
철저히
청구
체하
초당
초벌
출퇴
취약
치카
캐닌
쿰쿰
타요
탄내
탈착
태워
태우
터키
투톤
튀기
특수
파나
파운데
팔리
팽팽
페넬
평일
푸들
풍구
피자
피트
필립
핑계
하림
하마
할로
합격
합성
항정
허전
현실
호르
환자
흘렸
히터
##버림
##미끌
##지방
##어ㅓ
##어먹
##이면
##이나
##자마
##하게
##ㅍㅌ
##마다
##진다
##ㅓㄴ
##ㄴㄴ
##우글
##우더
##오르
##대서
##ㅏㅏ
##보고
##을까
##ㆍㆍ
##단지
##잘안
##청소
##주파
##불긋
##든지
##렌드
##깔끔
##날쭉
##큐어
##채기
##테스
##페인
##긋불긋
##핑크
##학년
##MI
##jd
##베이
##벨트
떨어트려
다가오
들어맞
더라고
아기방
연락처
차이점
그러면
올라옵니다
운동복
바람막이
부러집니다
두꺼운데
귀여움
예정일
허리끈
미리미리
정확도
어울려
125
12000
12345
느라고
가려운
와이셔츠
끼워야
나온다고
가까워요
구워도
사라져
어쩌다
라니요
튀어나왔
전기장판
실내복
거슬림
뜯어내
보온병
끊어진
다를까
망치질
일어남
떨어뜨린
끓여도
전문점
만두피
찾아왔
받쳐입
밑위길이
구부리
미끌미끌
과대광
물컹물컹
고마워
안타까
신혼집
튀김옷
집어먹
쏟아져
복숭아뼈
스파크
시커먼
실외기
이물감
라던지
걸어야
걸어다니
마요네즈
잡아당기
청정기
다리미판
말끔히
여지껏
스무디
철분제
가림막
커터칼
바닷가
그제서야
부채살
흐트러
간간히
저항감
매니큐어
우글우글
방부제
시크릿
티타늄
필라테스
하기스
그라인더
들쭉날쭉
물줄기
멜로디
유난히
침전물
공휴일
만듦새
엠보싱
출퇴근
파운데이션
호르몬
76
8000
AB
HD
Led
lg
ps
ssd
ㅇㅍ
ㅇㅌ
ㅊㄱ
ㅌㄴ
ㅍㅁ
ㅓㅎ
ㅕㅑ
ㅗ아요
가래
각보
강조
강사
개똥
거진
거린
건시
걸음
걸쭉
결코
계십니다
고전
고글
고주파
공업
공연
관상
괜챦
구래
구역
권하
글러
금세
급니다
기심
기뻐요
까보
나지
나뉘
내지
내피
내외
냐면
냠냠
넬라
녹아내
농사
농협
높여
눕혀서
뉴질
는다면
단거
달기
담겨서
당당
대전
대하
대회
대표
대실패
더구나
덜컥
덧바르
덮밥
데쳐서
도가
돌고
돌린
동강
됐었
됫다
두개
둥이
둬요
딱지
라네
래도
레기
로퍼
로봇
마져
멜론
명성
무심
뭉친
미묘
미비
미칠
밀떡
바케
바뀜
반통
반들
반죽
반성
발자국
베어링
병행
보스
보석
보존
보너스
봉인
봉다리
부리
부츠
부끄러
불려
비올
뺀다고
뻥튀
사물
산딸
산다면
살빼
살찌
샀으나
생소
서늘
세울
세워서
소장
송풍
순둥이
숨겨
슈크림
스지
슴당
습식
시거
시이
실한
쌀알
쌀가루
써먹
아고
아앙
아낄
암컷
애견
양이
에탄올
열릴
였을
오려
오만
온건
올림
올게
옹이
와도
왜냐
왼손
요양
우기
우측
운감
울긋불긋
웃기
위안
유부
으아
으으
을려구
익힌
익혔
인진
일방
일괄
입후
자칫
장화
재채기
저흰
전조
절감
접어
정면
정육
제고
제육
조하
조사
조언
좌측
주물
줄무늬
지그
진물
질려
질김
짤리
쬐금
쬐끔
차리
착했
참으로
채비
책자
척후
천지
천만
철회
청포
추임
추위
축하
치만
침실
카로
칼질
캐나다
콧물
콩국수
크랙
테라
테입
통행
트리스
티켓
파실
펑크
페이크
풋내
풍미
하세
한정
한복
할거
합쳐서
항공
해영
해줍
해지지
헤프
헤맸
혈액
호구
호랑이
홈피
회신
후레
후르츠
휴게
흐흐
히팅
##다다
##아까
##거덕
##거려서
##자재
##동생
##et
##ㅊㅇ
##ㅁㄹ
##파스
##스레
##스름
##ㄷㅈ
##저렴
##오리
##오오
##비틀
##ㅏㅣ
##ㅗㅎ
##보니
##제가
##무원
##만큼
##잘쓸
##껍질
##던거
##했어요
##내요
##쿠션
##민턴
##80
##굿굿
##le
##맨들
##분유
##vc
##ver
##깎이
##꾸역
##베아
##흑흑
##맘에
##휘청
사용자
으로써
포장재
엄청남
엄청납니다
해야함
으니까요
시원시원
아무데
듭니다만
드렸었
다리털
으나마나
올라갔
모양새
어떻하
그랬음
붙여놨
미끄덩
다이얼
아이스티
화이트로
어울림
느껴요
얼룩져
에어리
끼워져
ㅠㅜㅜ
나온다는
162
164
손톱깎이
##ㄴㅇㅎ
##ㄴㅇㅀ
세척기
안전벨트
는대도
넘어져요
안경알
스트링
잘라냈
재미나
ㅜㅜㅜㅜ
먹여야
반짝임
물러진
스티로폴
나올지
마셔야
일어난
으셨으면
쓰러져요
무서워요
어지간
박살났
ㅇㅅㅇ
용접부
신뢰도
스토퍼
자취생
시스루
삐져나
환해졌
비스듬
👍🏻👍🏻👍🏻
뜨거워서
소라게
휘청휘청
정수리
덜컹거리
은박지
바스락거리
크리너
언젠가
ㅇㅏ요
스케줄
거들떠
##아쉽네요
부지런히
겉모습
소지품
엄지손가락
갔다왔
그물망
뒤척이
배드민턴
브리타
아부지
하리보
##더라구요
##접착제
아울렛
페인팅
마일드
마운트
꾸역꾸역
맨들맨들
수돗물
올인원
페넬로
필립스
12345678
뉴질랜드
뻥튀기
산딸기
전조등
후레쉬
41
4000
62
67
73
As
Good
PC
hd
ㄴ다
ㄴ디
ㅓㄹ
가실
가타
갈지
개학
갠데
걍씁니다
거릴
건어
건선
걸쳐서
검은
경과
고동
괜한
교토
구한
구찌
귀뚜
그곳
기전
기가
기겁
깔판
깨달
꺼집니다
껍니다
꼬마
꼬여서
꽂혀
끝난
나바
나노
나참
남짓
냐며
널어놓
네츄럴
놀랄
농산물
놓치
다간
다뤄
단기
달력
당겼
당겨서
대과
더웠
더이다
덜덜
도드
동남
됏는데
됫어요
됫네요
둬서
뒷목
뒷맛
뒷자리
뒷바퀴
등원
디피
딜레이
따를
땡땡
떼지
똥배
래미
러버
레터
련지
리어
마작
마십니다
매웠
맥북
맨살
먹물
먹인
멋져요
명불
무려
무염
문방
문고리
물새
물고구마
물방울
미쳐
미끈
미백
바싹
반창
발수
발휘
방안
배쪽
버거
베일
복대
볼살
부치
불순
비우
비록
빌리
빗이
빨아
뻐근
뼈대
사합
사신
살리
상풍
상다리
새싹
색력
생전
세미
세계
세균
소과
속싸개
송진
수천
수트
수경
숙주
슬랙스
신체
실컷
심도
싼데
쏘렌
쓰여서
씌워서
아반
안들
야죠
약산
약병
어엉
어성
여수
여권
연구
엽서
예열
오물
오메
오너
올바
와플
완존
요망
우동
우째
우겨
우수수
웨이
유유
으란
으렵
이주
인화
인해서
입원
입체
입혀서
자나
자제
자그
자알
재울
저려
전력
전거
절로
정력
정하
정체
젖혀
제왕
제탓이
져야
져도
조율
조앙
좌식
주걱
죽이
줄까
중상
줘버렸
지마
지관
진지
진청
징그러
짭쪼
쫙쫙
찌게
차나
차키
찬바람
책정
천막
철심
첨사
체구
쳐박혀
초고
최선
출하
카운
칸칸
케익
콩알
클레
키가
탁해
탈락
테라스
텍스
통안
튑니다
튜버
트롤
트라이
특사
티즈
파랗
판다는
패인
팬더
포스
폭풍
플리
피톤
필통
항생
해물
해체
향상
허무
헐떡
헛도
헤져서
헹굼
홍어
화재
화남
화났
확신
활성
획기
횟수
후반
훈훈
휘발
흔히
흘려서
흡사
희미
##버려
##리드
##바늘
##멍이
##용품
##실까
##gj
##ㅁㄷ
##ㅅㄴ
##ㅅㄷ
##정도
##더스
##파우더
##ㄴ다
##ㄴㄷㅅ
##사용
##ㅇㅅ
##저는
##ㄱㆍ
##ㅗㅓ
##을거
##까칠
##히카리
##만두
##mi
##ㅋㅌ
##많이
##토돌
##종이
##삐뚤
##카스
##84
##허전
##46
##dy
##았는데
##la
##곡절
##회색
##위치
##☆☆
##쟁이
##뜨끈
##칩니다
주문자
아이언
그래픽
그런진
시원찮
고정대
아쉬울
기다림
올라갈
비싼지
벗겨서
무거웠
무거울
김치찌개
냉동고
흔들릴
이걸루
베이컨
침대위
내려와
내려갔
발송전
움직입니다
속상해
빠져나가
ㅠㅜㅠ
던지라
1800
넘어갔
다녀와서
사라질
미니미
순간접착제
그럼에도
괜찬은거
한다니
골드색
끈적이
갈아줘야
톡톡히
호박씨
일본어
##다면서
기울어지
따가움
말라비틀
더욱더
간지러운
2016
어두운색
만지작
##ㄹㅇㄴㅁ
준다더니
생김새
무너져
조그마
생리통
스며드
슬라이드
물컹거리
치우쳐
그려지
까칠까칠
번들거림
추워져서
##sdf
총각무
담궈서
외국인
트레이닝
뭉개지
뒤틀려
♡♡♡♡♡
해줘도
마스킹
푸른색
##̣̣̣̣
변함없이
고시히카리
귓볼이
놔둬도
바이올렛
이빠이
스카치테이프
오돌토돌
정해진
com
시세이도
플래너
LTE
글리터
우여곡절
관상용
해줍니다
페넬로페
건어물
동남아
레터링
명불허전
문방구
쏘렌토
아반떼
으렵니다
항생제
00
08
97
PV
PP
lte
on
uv
ㅇㅋ
ㅊㅁ
ㅊㄴ
ㅌㅇ
ㅓㅣ
ㅔ요
ㅜㄴ
ㅡㅇ
가전
가해
가늠
갈려서
감감
갖추
개통
걍쓰
거미
거르
건디
걸때
게이
견이
견딜
결로
고만
곱새
공동
공향
과감
교통
구색
구동
구립
구린
귀지
귀신
귀마개
그르
그랜
급속
기통
기원
기적
기댈
까실까
꼽히
꾸리
끼여
나인
나선
남여
낮춰
내놔
내열
노리
노른
노견
놓쳐서
놔요
놨더니
누굴
눈알
눕히
느냐
니가
니즘
니베아
다래
다던데
달까
달랬
답니당
당함
대각
대야
대행
대화
대중
대상
더스트
던진
던가요
덮히
도둑
돌체
돌김
돟아요
됏어요
두벌
둬도
들으
들락
디저
디게
따름
때리
떡메
떨리
라미
라데
러블
립후
마세
마련
만하
만년
만났
말썽
맘놓
맛볼
맞아
매니아
맹탕
멍멍이
메추
메트
모지
모로
모릅니다
목뒤
못질
무화
무풍
무소식
문틈
물컵
물려서
뭉그러
뭘로
미처
밀기
바송
박힐
발받침
배비
백서
버너
버킷
번건
베스
병뚜껑
보더
보급
봉도
부식
부재
분쇄
불면
불려서
뷰티
브래지
블러
비로
비랑
비립
비례
빈틈
빗기
뻐용
사춘
사세
사골
사소
사갈
삭스
산산
산티
살코
상술
서용
서운
섞였
선수
성장
세영
센타
소녀
소가죽
속이
수육
숭숭
슈가
스쿠
스마일
슴돠
습나
시접
시든
시향
실러
십니까
싸우
쌀국수
써져서
썻습니다
쓰림
씁니
아일
아으
아녀
아쥬
알뜰
앏아요
앏아서
양키
어후
엇다
에라이
엘베
엠사이즈
연수
연근
연청
연출
열자
열렸
염통
영국
영문
옆집
예의
오드
오금
올지
올꺼
왔으니
요미
요란
요소
우씨
우연
우풍
우려서
운색
울딸
웟는데
유발
으다
을런지
음성
응원
의구
이프
이킹
이라고
인제
인절
일석
잎사
자도
자성
잘빠지
잠궈
잠자리
장인
재첩
저건
적셔
전등
접지
접대
정제
제기
제것도
조오
졸라서
좔좔
준거
줄눈
중대
즉각
지면
지라
지웠
지푸라기
직사각
진했
집하
집히
짜여
짱구
짱박
쪼꼼
쪼가리
쪼그라들
쫄쫄
찔려서
차질
차인데
채웠
청귤
초장
출출
카포
카멜
캐시
캐주얼
캡쳐
커진
컨버스
컬링
크러치
큰애
클러치
키티
킬러
타지
타원
탁조
터득
턱걸이
토스
트지
트임
특정
틀려
파트
파자마
판다고
페트
포스터
폭탄
푸대
푸르
프렌
프랑
피디
픽업
필로우
핑거
하품
한층
한샘
합배
항시
향신
허물
헤졌
현수
혼동
확률
환상
회원
후딱
희한
희안
힌지
##고무
##다발
##아야
##장창
##서도
##구여
##이조
##이건
##한거
##려면
##ea
##ㅊㅌ
##나리
##나라
##나ㅏ
##스타
##ㄷㆍ
##ㅇㅀ
##터면
##대비
##ㄱㄴ
##ㅂㄷㄴ
##로드
##ㅗㅑ
##도그
##을듯
##와이
##긴한데
##빈다
##얼룩
##할때
##ㅕㅑ
##부모
##커녕
##그럭
##끼우
##상태
##발라
##웨어
##펠러
##49
##혀요
##블루
##헤드
##ps
##ㅣㄴ
##ot
##때기
##쭈굴
##DS
##최고
##찐득
해서요
ㅠㅠ아
들어도
는지라
마감재
문제작
커서인지
빨랐으면
비해선
쓰레기봉투
조절기
아이스커피
돌아다
돌아간
얼룩진
가슴둘레
아닌데요
아래위
프로펠러
미끄러질
으려다
그런가보다
몰라라
는대요
181
어찌하
넘어왔
사라져요
칫솔질
가져왔
으신가
어린아이
괜찬고
공기압
상세히
모래주머니
한다더니
조이스틱
갈아입
연습용
드라고요
결과물
느린데
완성품
타이밍
어린이날
거슬릴
5500
분사기
내장재
출고가
기울여
심해졌
들어간다고
일어서
하이라이트
핸들링
밀려나
사각팬티
한국인
날라다니
생산지
쓰러짐
불만족스럽
##ㄹㅇㄴ
지켜보
엄지발가락
##배송도
오렌지색
섬유질
부스러지
구부려
스탠리
바이오
여태껏
헷갈렸
소화기
유니폼
담겨져
정신없
익혀도
새끼발가락
뿌러졌
##ㅈㅅㅈㅅ
찐득찐득
스테인리스
된장찌개
카라멜
기념일
뒤틀림
시끄러워
시끄러운
시끄러워서
피로감
구부러져
뛰어납니다
해줘서
해줘요
아껴서
둘러보
하여간
흘러나오
들어올리
문질러야
문질러도
건드리
건드려도
ㆍㆍㆍ
계량컵
주차장
바이올린
뜨끈뜨끈
리코더
못써요
주니어
맞물리
뭉침이
함유량
면세점
잠수함
공유기
무작정
테니스공
돋보이
브레드
살구색
하마터면
HDMI
도가니
왜냐면
1234567890
검은콩
불순물
약산성
카운터
거미줄
까실까실
노른자
디저트
무화과
브래지어
비립종
사춘기
산산조각
살코기
인절미
잎사귀
05
cs
diy
made
na
sns
ㅇ이
ㅊㅅ
ㅓ어
ㅜ어
ㅜ안
ㅠㅇ
ㅡㄹ
ㅡㅋ
가바
가동
가여
가랑이
각기
각종
간당
간질
감고
감소
강원
개불
개취
거요
거제
건져
걸맞
걸려도
걸으니
겉표
게이지
겠다
겸사
경동
고인
고대
고행
고작
고집
고와서
공감
괞찮
괴롭
교재
교시
구정
구겨서
군고구마
귓구멍
그대
그분
근사
기여
기껏
기획
길들이
깍이
꽃송이
꽃다발
꾸깃
끊겼
끼여서
낀다고
낑기
나진
나트
나토
낙서
난생
났으면
냉감
냉매
넘쳐서
넷플
노릇
노가리
녹스
녹두
농어
놧는데
눈치
늘렸
니나
닌텐
다져
다짐
다쳐서
다우니
닦인다
단부
단발
단팥
닫힌
닫혔
달지
달바
담주
당사
당혹
대접
대패
대시
대두
댕이
댕기
더우
덜그럭
데미
돕니다
된답니다
두들
두렵
뒤져
드론
드문
들려
들것
등판
따숩
딸내미
땡길
라오
래여
로워
로프
루이
리오
리부
마신
마를
막아주
말다
말캉
망이
매전
맨손
머지
머스
모으
모금
모찌
목화
목록
몰래
몰르
못자
못나
무니
무도
무방
무김치
묵혀
묶여
문양
문틀
물씬
뭉툭
미사
미달
미뤄
밍크
바꿈
반했
밝아지
방진
배워
배공
버거워
번졌
베기
별류
보구
보세
보면대
보행기
본전
볼품
봄여름
부장
부어도
분과
불과
불렀
붕대
블레이드
비늘
비번
비키
비거리
비너스
빕스
사우나
삼켜
새지
석고
선가
선식
선불
성한
성형
센트
셰프
소피
속력
속충
손대
손소
송속
수컷
숙취
쉬울
쉬움
스로
스윗
스빈다
슬쩍
시고
시정
시러
시체
시린
시부모
신상
실로
실질
싫어하
싸인
쌀눈
쌉싸
썬팅
쓱쓱
씌운
아감
아슬
안테
앏고
앞서
애물
야마
양미리
어영
어질
에고
에너
에이드
에디션
엘리
여조
여과
역겹
오락
오케이
온기
올까
와셔
완자
왕발
요걸
욕구
용인
우정
우럭
원대
원료
월드
웬지
유감
유쾌
유칼
육회
음세
의지
의료
이소
이겨
이슈
이래도
인사
인건
일거
일으
일보
일부분
입고
입시
입힌
자다
자아
잠구
잡지
잡채
장통
장모
재래
재활
저곳
전형
전할
절여
점보
점박이
정식
정정
정비
정밀
정답
젛아여
제약
졌었
종가
종료
죽음
중학교
지용
지진
지청
지끈
지낼
직선
진저
질지
짜임
짤려
짼데
쪼매
쫄리
찐덕
찔러
착합니다
챙피
처방
척척
천정
체고
쳐져
취하
치명
치울
칠레
칼국수
커브
컬리
케리어
코르
코다리
콘솔
클라스
킹크
탈탈
탕탕
태가
턱없이
텅텅
토했
토닉
특징
파업
파타
파킹
패트
퍼팅
펑펑
편식
평행
폴라
표고
표준
프론
플러
피나
함다
핫도그
해드
해방
해봄
향지
헤나
형체
홍콩
화내
확연
횟집
후처리
후다닥
흐름
흑백
흘린
흙냄새
힘껏
힘내
##좋은
##좋네요
##다르
##지않
##리고
##아졌
##아ㅏ
##장난
##ㅜㅡ
##이고
##이안
##ㅎㄱ
##추장
##잔치
##잔데
##gf
##it
##sa
##ha
##ㅊㅁ
##마리
##나타
##우유
##스민
##ㄷㄹ
##노노
##오고
##라져
##대문
##ㄱㅂ
##ㄱᆞ
##로로
##치드
##런치
##들어
##플레이
##보스
##엄청
##방편
##잘못
##원래
##ㅌㅎ
##ㅌㄱ
##겠어요
##주름
##불량
##밀이
##카드
##nd
##43
##45
##았어요
##블랑
##살이
##느러
##os
##있어요
##kd
##올리
##ct
##볼록
##섬유
##냅니다
##겸사
##뱅이
구매처
사용량
ㅠㅠ너무
필요시
스러우
세탁물
나와야
올라간
부러워
무거운데
##스크린
나무랄
이불장
유리컵
건강식
화이트헤드
153
155
부착력
한지라
끼워져서
보호용
부드러워졌
보낸다고
워낙에
ㅜㅠㅠ
드릴께요
따라가
외출복
오른손
줄어듭니다
갈아끼우
사과즙
이하동
무리없이
전기선
타이틀
보드라워
뜯어본
해봐요
마셔서
삐뚤삐뚤
기울어져서
보조제
275
너덜거리
설탕물
갈비찜
날아다니
양심껏
사각형
날라갔
으셨는지
생강차
드러워서
##ㄷㄴㄷㄴ
완충재
ㅇㄷㅇ
바이러스
아닐까요
교정기
물어볼
대리점
고마운
가져다주
까슬하
라면서요
거북목
뭉개져
잡아먹
한결같이
뒤틀리
울렁거리
울렁거려
제습기
최상품
뜨거워져서
쪼개지
라던가
성질나
쓰임새
##djdj
나아졌
하얘지
언젠간
까매지
가르쳐
임시방편
주입구
##가격대비
해피콜
기성품
청량감
싱거워서
ㅡㅅㅡ
나뭇잎
자바라
##이뻐요이뻐요
거시기
으리라
비대칭
주저앉
독서대
디스플레이
아카시아
오동통
ㅇㅓ요
나뒹굴
사슴벌레
아름다
항정살
과대광고
글러브
제육볶음
오메가
클레임
트롤리
피톤치드
PVC
감감무소식
러블리
불면증
스쿠터
의구심
향신료
현수막
naver
겉표지
겸사겸사
넷플릭스
닌텐도
목화솜
쌉싸름
안테나
여과지
플러그
06
07
83
KF
aa
mdf
pvc
ss
ㅇ라
ㅇ네요
ㅑㄴ
ㅓㅏ
ㅕㄹ
ㅗㅇ
ㅛㅇ
ㅡㅎ
ㅡㆍ
ㆍㅇ
가하
가제
가질
가계
각대
각시
간다는
갈도
갈린
강색
강청
같애
개마
개조
개발
걍입
건식
겁내
계곡
고음
고의
공정
광섬유
구지
구실
국그릇
군것
굴뚝
권해
귀요
귀욤
규칙
극소
근조
근디
긁힐
기숙
기르
기피
기판
기엽
긴급
긴말
까딱
깎여
깨물
꺾이
꼴뚜기
꾹꾹
나스
난이도
남겨서
납품
낱장
내고
내기
내라
넘겨
네트
넬리
농구
놓이
놓쳤
놧어요
누울
누린
눌렸
늘어져서
다마
다대기
닦일
단연
달치
담구
대대
대짜
대성
덧댄
데크
독해
돌판
되려
됫는데
두텁
둘려고
뒤져서
뒷좌
든데
들으면
듯한
따시
떡국
떨궜
뜯겼
라나
라뇨
레자
로왔
로스팅
롤링
리아
리플
링가
마추
만삭
맨데
맹맹
멀미
멈췄
메리
모종
모여서
목장갑
몬스터
몰리
무해
무개
무스
무관
무제
무뎌
문요
물탄
뭉게
미라
민물
민자
민원
밀도
바둑
바뀔
박카스
반전
반갑
발끝
밥알
방과
배기
배신
백김치
버겁
번개
벗어나
베이트
벼로
변명
변환
보글
보가
보색
본가
본연
봉고
부팅
부엉
부주
부럽
부쩍
분후
불날
붉어지
붙박이
브루
블랭
비실
비와
비행
빌보
빛바
빠이
뺄려고
뽀족
뽑힘
뽑혀서
쁘고
삐죽
사사
사량
사보
사건
사냥
사촌
산란
살점
상실
색다른
생후
생략
서걱
서핑
선선
설날
성실
성충
세월
셋째
셔틀
소니
소보
소액
속아
손맛
손때
송송
수요
순차
술술
쉬우
쉬우나
스펠
스켓
스냅
승용
시드
시퍼
시각
신용
신차
실지
실오
실은
실타
심장
싶어요
싸개
싸가지
쌓여서
썰리
썽요
쏘옥
쏠쏠
쏴서
씨름
아조
아재
아스
아치
아세
아셨
아따
아효
아찌
아녔
악어
앉혀
알바
알찬
알배기
암수
암모
앙고
앞다리
애쉬
어다
어뇨
얼릉
엄니
엉킨
여직
연료
열전
오작
오뚜기
옥천
온스
온갖
왔으며
외할
외풍
요철
요렇게
우비
운반
울릉
웃겨
워킹
원분
월등
위장
위하
유도
윤활
으련
으셔
음용
응아
의한
이긴
이럼
이놈
이삿
이갈이
익스
인원
일제
입어
자글
자차
자두
자판
작은
잔잔
장이
장맛
장애
장벽
저자
저하
저음
저격
저학년
적재
적시
전한
전편
절실
점도
젔어요
제스
제트
제시
졋는데
조물
조건
조년
족저
좁음
주고
주유
주사
주둥이
줄서
줫더니
지로
지치
지남
지느러
진자
진데
진액
짜파
짱아
찌글
찔끔
차후
찬기
찮고
찮네요
채널
척추
천재
철망
청색
체력
초리
초가을
추전
침침
카네
카펫
커져서
컨디
코인
콩고기
쿠나
크루
타코
탈지
태블
태극
터미
털실
테러
테크
토치
통수
투스
특허
틀렸
파래
판때기
퍼먹
퍼져서
퍼스트
펼쳐서
평이
평면
포슬
폴리스
퓨저
피그
하지
하시
하원
하와이
한창
한여름
해수
해줄
해삼
해해서
허여
헤헤
헹굴
현명
현혹
호전
호떡
혼선
홀로그
홍진
홑이불
화해
화로
환해서
후끈
흐음
흐릅니다
흰옷
히고
히비스
##미어
##고양이
##니ㅏ
##지는
##아슬
##수기
##ㅜㅠ
##이개
##이쁘
##가성
##자꾸
##하루
##ㅎ아
##ㅎㅋ
##는게
##루룩
##ᆢᆢ
##em
##sh
##ut
##ㅁㅁ
##ㅁㄱ
##해져
##해주
##정말
##유럽
##사탕
##ㅇㄻ
##러어
##러요
##러ㅏ
##러시
##라ㅏ
##ㄹㄷ
##ㅂㅇ
##ㅂㅈㅇ
##ㅏ나
##ㅐㅑ
##보우
##간당
##을것
##빠르고
##번들
##은듯
##모습
##털이
##합니당
##ㅕㅗ
##소라
##덜컹
##그려
##렁이
##포슬
##않아요
##속상
##99
##tg
##tt
##23
##dh
##살껄
##날락
##pp
##느낌
##립투스
##or
##갈리
##굴젓
##꺼칠
##처럼
##뿌리
##bd
##br
##꾸덕
##jk
##튀김
##효과
##냉면
##닉스
##엇는데
합니다요
주문건
포장비
인데도
들어야
조립품
빨라졌
판매점
머리맡
스러우나
꼼꼼이
연결선
달라져서
아까우
나사선
##네요ㅠ
습니가
스티치
ㅠㅠㅠ너무
여행지
매트릭스
돌아갈
스타드
속상함
속상해서
어깨선
챙겨서
약한가
가려울
네이처
사실상
166
구겨졌
안전화
173
172
사라진
약해져서
어두움
가져와서
키로로
안내문
잘라져
뒤집히
일회용품
연습장
그럴싸
그럴까봐
라이언
빨간불
오리고기
돌려보내
##ㅎㅎㅎ
수건걸이
삐뚤어진
기울어짐
따가웠
마이너스
돼지갈비
##ㅈㄱㅈㄱ
소금구이
올릴게요
스위트
수리비
아랫단
빠질까
세련되
통풍구
가정집
##ㅠㅠㅠ
낙지젓
무너져서
떨어진다
떨어진다는
반대편
푸석거리
이동식
비비안
헷갈릴
ㅇㅁㄴㅇ
써볼까
카시오
물어봐도
번들번들
베이비핑크
벌어졌
##어어어
문질렀
시골집
어설픈
보인다는
광어회
비틀어지
스파게티
대추차
구부러져서
줄여도
악세서리
♡♡♡♡
이왕이면
네모난
장미향
한대서
덜컹덜컹
찰랑거리
야광이
골프공
어떤지는
다기에
장기간
흘러나와
허허허
하얘서
찹쌀떡
주인장
지하철
디지털
쭈굴쭈굴
레인보우
접합부
겉모양
파라솔
##ree
마그네슘
근막염
시어머니
터무니없이
배고플
역겨운
꺼칠꺼칠
무가당
XXL
눈부심
체온계
2021
스노우
오마이갓
할로윈
가래떡
정육점
고동색
귀뚜라미
다뤄야
반창고
빨아들이
자그마
징그러워
다래끼
들락날락
만년필
맞아떨어지
빈틈없이
일석이조
캐시미어
간당간당
데미지
루이보스
아슬아슬
유칼립투스
군것질
기숙사
뒷좌석
블랭킷
실오라기
아세톤
암모니아
오작동
이삿짐
지느러미
짜파게티
카네이션
태블릿
터미널
포슬포슬
홀로그램
히비스커스
##가성비
02
04
51
68
71
7000
96
AA
CM
GB
Kg
MD
SS
Tv
ab
ch
free
km
ㅇㅊ
ㅇ러
ㅇ로
ㅇㅔ
ㅇㆍㄱ
ㅊㅍ
ㅌㅎ
ㅌㅋ
ㅏ아
ㅏㅏ
ㅐㅑ
ㅐㅔ
ㅓㄱ
ㅓㅗ
ㅗㅓ
ㅗㄹ
ㅗㅗ
ㅡㅂ
가관
가누
가오리
각이
갈변
감지
감쪽
값싸
강지
개박
걍쓸
거거
거주
거린다
거린다고
건초
걸까
검증
검댕
겉감
게라도
견적
결속
경고
경기
경계
곁들여
고딩
고나서
곤충
골치
공임
공산
공책
광장
구어
구서
구간
구름
구내
구선
구연
군인
굳은
굽히
굽혀
권유
균열
그새
글로
긁어내
금장
금박
기지
기리
기아
기내
기쁩니다
기프트
깉아요
깔개
꺼림
꺼질
꺽여
껴입
꼬불
꽃무늬
꽃바구니
꽈배기
꾸덕
꿰메
끌려
끝났
난데
날벌레
남동생
낯설
내수
내성
내려야
널리
네온
넥라인
노인
녹쓸
누름
누릅니다
눈꼽
뉴스
늘릴
니더
다물
다쳐
다세
다육
단색
단화
달짝
담사
대학생
대가리
더움
더덕
덧발라
도미
도통
도난
도향
도무지
동중
동대문
돼야
된데요
두릅
둿는데
뒤뚱
드드
드시
드랑
드롭
드르륵
등갈비
디즈
디젤
따끈
따위
딴지
때깔
때밀이
떨구
뚝배기
뜨뜻
띄우
라가
라우
랍니당
랜드
러시아
로네
로로
로울
로딩
루지
루비
른거
리셋
릴링
마지
마진
마무
마쳤
마술
막내
막힙니다
만세
만날
만듭니다
맘고생
매뉴
매립
머스크
머플러
몆번
모하
모잘
모듈
목배
목선
몬하
몸짱
몽블랑
문서
문안
물엿
뭉퉁
뭥미
므너
믾이
밀린
바니
바질
반년
반제품
받혀
발음
발소리
밝아졌
밤부
밥그릇
밨는데
방용
방기
방학
배스
배트
배짱
밸브
버팔
번쩍
벗길
벡스
변동
변속
별짓
보담
보테
복택
복귀
볼라고
봉후
봉합
봐선
부쳐
부침
부끄럽
분비
불꽃
붉은색
붕어
뷔페
브렌드
비면
비쌀
빡시
뻐여
뻔했
뽀얗
뽑힐
뽑혔
삐끗
사아
산미
산행
삼치
삽입
상아
상각
상합니다
새해
새까
색갈이
샘물
서포
서부터
석박
선지
세이
세통
세면
세염
셨으나
소랑
소페
손실
손잡
손발
솜씨
송곳
수강
수화
수급
숙지
숙소
쉴드
스나
스쳐
스펜
스팟
스텝
스파이
슬픕니다
습하
시지
시식
식후
식혜
신자
신행
실장
실금
싱가
싼가
써버려서
쓴다는
쓸린
아려
아베
아찔
아네요
아아아
안착
안기
안락
안음
알곡
알미늄
암만
암것도
앙금
야요
야무지
양가
어니
어사
어선
어염
어따
업로드
엉엉
에염
여미
여려
연비
연무
연골
연달
열라
염도
염분
영동
영별
오니
오가
오더
옥스
온습
올록
옷핀
와버렸
우네
우도
울립니다
원복
원뿔
월남
위로
윗옷
윙윙
유래
으먼
은디
응급
의해
의의
이감
이파
이향
이대로
인수
인텐
일절
잉글
자개
자일리
잔치
잡동
잡니다
재배
저래
저소
저지방
전전
전지
점액
접해
정지
정사
정갈
제대
져버렸
조직
준다면서
지걸
지급
지쳤
지옥
지붕
지킴
질환
질깁니다
짐승
집개
짓무
짠지
짤라서
짭잘
찔려
차마
차면
차차
차별
차르르
찹니다
채운
채울
척하
철수
철철
철권
첨보
쳐지
초월
촉박
최종
추웠
추운데
츄리닝
칠해져
침착
침독
카스
카타
칼림
캐모
캘리
켯네요
켯더니
코타
콧대
콩가루
크라
큰가
키는
키스
키울
타피
태그
택했
탱이
통발
통찜
통해요
툭하면
트레
틈틈
티몬
파지
팔아먹
페북
펜션
펠트
펴져
편차
폴더
푸켓
풀어져
프루
플라
플랫
피봤
필히
핑기
하프
하판
하곤
학습
한색
한걸
한치
한향
한올
함부
합치
항요
해변
해봤
해독
햄버
햇살
행동
헤져
현황
호대
홀로
환한
활짝
활발
회의
후진
후들
후쿠
훠궈
흐미
흐뭇
흔하
흙먼지
흰자
##품질
##고만
##전에
##좋음
##니딘
##다보
##다행
##지가
##아가
##아ㅣ
##바다
##에서
##에는
##어유
##어ㅏ
##어났
##거거
##거렸
##수선
##인듯
##구입
##멍텅
##이이
##드문
##자이
##ㅎㄴ
##줄알
##쓰고
##ㅡㄱ
##머님
##ew
##ix
##ub
##ㅊㄱ
##ㅊㅂ
##ㅁ너
##ㅅ어요
##ㅈㆍ
##안나
##안경
##정이
##개장
##ㅓㅓ
##ㅓㅠ
##ㄴㅌ
##후들
##후회
##사니
##러가
##러러
##러움
##저만
##여워요
##오일
##오ㅗ
##반들
##라요
##ㅂㅈㄱ
##로션
##ㅏㄴ
##들어요
##도록
##플러스
##괜히
##할듯
##건지
##놀이
##겠다
##디다
##질근
##토랑
##그럽
##주고
##포근
##포르
##의자
##불편
##뉴ㅠ
##써요
##63
##렐레
##선물
##택배
##설치
##휴가
##nc
##민트
##88
##lj
##pn
##흐흐
##ㅣㅣ
##맞이
##og
##갈색
##ㅔㅐ
##말랭이
##튼튼
##테인
##처음
##rk
##vv
##따끔
##돈아까
##귀찮
##높이
##므로
##멜로
##톡스
ㅠㅠ흑흑
그래이
오래갈
더라니
이나마
고정부
하루살이
여름내
접착테이프
그러니까
비닐장갑
나사산
기름칠
귀여웠
귀여울
걸리적
아파하
우리나라
돌아기
느껴서
흡수율
얼룩지
번거러움
시킬려고
시킬려구
청소년
올려놨
속상한
불안감
프로젝
맞춰도
에어쿠션
좋아해
어느새
떨어져나
169
167
115
스크랩
방수포
새우깡
시계방
18000
넘어졌
25000
스트림
걸린다는
어린애
##ㅋㅋㅋㅋ
잘라진
145
편해야
끈적거림
오프너
오염물
타이즈
나이롱
마르지
부셔서
마셔도
기울이
가로길이
줄줄이
날아갈
포근포근
하이브
이만큼
떨어뜨려
아랫배
빠질지
무서웠
놀라울
던져두
아닌지요
210
찾아오
##ㄹㅇㄹ
으라는데
##배송이
양치질
무너질
떨어진다고
부스러져
미끌리
연장선
입혀요
헷갈려
괜춘해요
바꿀까
오랫만
유니크
레스토랑
만져도
출근길
뿌러져
뿌러져서
잘려져
면도날
문어발
벌어집니다
총각네
풍선껌
작아진
욕심내
피해자
까슬한
적절히
찢겨져
차가워
포도즙
집어던
가려워하
메인보드
시끄러움
알아본
290
근육통
줄여야
소주잔
흐리멍텅
한대요
뜨거워지
그라운드
을려면
어째야
나아진
잡아당겨
이루어지
을라구요
기우뚱
쉬워졌
나비잠
엔진오일
들이부
부시시
장마철
사셔요
어리굴젓
즐거웠
부스럭
엉켜서
존재감
더치커피
손색없
안마기
잊어버리
탁구공
깜깜무소식
샌드위치
##sadsad
깊숙히
차렵이불
걍그래요
야자수
##아쉬워요
그로시
남김없이
배불리
버무려
매끄러워
알파벳
ABC
돌고돌
반들반들
보스웰
비스듬히
젖혀지
그랜저
대각선
프랑스
##DSA
대시보드
드문드문
애물단지
장모님
부엉이
승용차
실타래
외할머니
울릉도
작은방
크루즈
탈지분유
공산품
굳은살
꾸덕꾸덕
달짝지근
매뉴얼
버팔로
부침개
싱가포르
올록볼록
인텐스
잡동사니
저소음
칼림바
캐모마일
타피오카
함부로
해봤으나
햄버거
후들후들
61
69
79
74
DI
EV
XS
ck
no
pro
qc
sk
wh
ᆞㄷ
♥♥
ㄻㄴ
ㅇ아요
ㅌㅂ
ㅍㄷ
ㅍㄱ
ㅏ니
ㅏㅎ
ㅏㄷ
ㅏ라
ㅐㄴ
ㅐ송
ㅑㅓ
ㅑㅑ
ㅓㅁ
ㅓ너
ㅕㄴ
ㅕㅇ
ㅜ잘
ㅠㅎ
ㅡㅈ
ㅡㄷ
ㆍ좋은
가재
가영
가상
간사
간결
갈고
갈기
감추
감량
감겨서
값싼
강풍
개체
개중
거긴
거무
건자
걸지
겁먹
결함
경악
경영
곁들이
계약
계셔서
고력
고수
고임
고스
고래
고도
고와
고름
고운
고쳤
공차
과다
관한
관찰
광주
괜탆
교차
교훈
구미
구강
구애
권합니다
귀이개
그루
그은
그렀
극치
근접
금고
금상
기일
기차
기평
기격
기쁨
긴장
길러
길들여
깡통
꺼떡
꺼낸
꺾여서
꼬맸
꼼수
꾸몄
끊긴
끔찍
끝냈
끼니
나다
나기
나침
나위
나눴
난게
난무
날렵
남매
납득
내게
내의
내경
내린
내츄럴
널찍
넓히
넓적
넓직
네다
네스
노폐
노끈
놨을
누디
눈꺼
눈앞
눈높이
느긋
닙스
닙니다
닝닝
다지
다아
다방
다뇨
달성
닭똥
닭꼬
닭볶음
당할
당길
대자
대사
대자리
더부
던트
덩달
데카
도우
돌출
돌잔치
동기
동결
된대요
뒤통
뒤섞
뒤덮
뒷문
뒷주머니
드드득
들를
들린다고
등기
디렉
디데이
디톡스
딸애
때렸
떄는
떠다니
떡칠
떡갈비
떨이
뚤리
뜬금
띄워
라유
라르
라든지
랬더니
랴고
럭셔
로우
록스
루트
루피
루테인
르고
리안
린트
릴렉스
마는
마노
마대
마십
말기
말레이
말려야
망토
망신
맞기
매수
매진
매입
매칭
맵시
멈출
멈춤
메가
메르
면부
면바지
명칭
모도
모음
목표
몬지
몸살
무안
무쳐
무대
무상
무응
무말랭이
묶여서
물비
물올
물그릇
물파스
므느
미드
미원
민무늬
믿기
밀어
밀렸
바자
바침
바름
박하
박대
박싱
박멸
박힙니다
반가
반개
반달
받아
발품
발르
발편
밤늦
방구
방사
방출
배란
배관
배상
배경
배낭
백숙
백배
버로
버세
벅벅
번짼
별개
보냅니다
본산
본데
본다고
볼땐
볼려구
봐라
봣네요
부니
부근
부정
부종
분할
불변
불루
불붙이
붙잡
브러시
블로
비품
비아
비너
빅사
빅스
빈티
빌려서
빙수
빠를
뻥뻥
뽀개
뽀샵
뽀로로
삐거덕
사여
사영
사옹
사카
사온
사설
사회
사르르
삭힌
산후
산도
살대
살집
삼실
상가
상도
새서
새집
색실
서진
서프
서브
선팅
선인
성체
세지
세서
세웠
세관
셀카
소유
소방
소담
소불
소린
소풍
소갈비
속살
속여서
손봐야
솔트
솜이불
수조
수비
수습
수직
수증
수백
수향
순위
스페
스템
슬개
습한
습진
시미
시인
시마
시금
시카
시판
시절
식통
식욕
신아
신음
신났
신제품
실착
실문
심비
싼지
싼걸로
쌈장
쌩쌩
썻으면
썻더니
쑤셔
쓰려요
쓴다면
아인
아차
아사
아합
아린
아낌
아인데
안가
안색
안조
알알
암홀
애니
애써
야기
야옹
야겠다
양발
어렸
어금
어항
어욧
어수선
언짢
얼큰
엄한
업장
업해
엊그
에메
엘레
여니
여하
여오
여간
여백
여문
열고
열씨
열처리
염료
옆판
예식
예시
예매
오호
오목
오브
오곡
오키
옮겨서
와트
와장창
왕국
외투
요정
요량
요트
요놈
우어
우랑
운지
울고
울려
워라
원망
원투
원합니다
유수
유린
유에스
육개장
은진
은대
을고
을진
음색
응고
이구
이태
이오
이트
이격
이크
이존
이어지
인강
인중
일수
일용
일안
일간
일딴
일쑤
입질
잎파리
자갈
잔득
장용
장정
장당
장히
장땡
재워
재수
재서
재차
쟈크
저금
저온
저대로
전방
전병
전압
전쟁
전공
절인
절취
정중
젛고
젛아
젛아용
제키
조지
조인
조과
조코
졸리
종세
종교
주장
주라
주둥
주워서
죽통
죽여
줄라고
즉석
증발
지쳐
지향
지쳐서
직수
직진
진실
진건
진땀
진흙
진딧
질러
질려고
징그럽
짜부
쫄면
찌그려
찐한
찐빵
찔기
차근
차기
차시
착석
찮아서
참내
채팅
채집
챙길
철거
청년
체계
초라
초침
초크
촣아요
추적
축제
출입
충동
취침
츌라
치나
치웠
치발
친척
카봉
카테
칵테일
캔버스
캠프
커머
커트
커세
코골
코앞
코딱지
콤비
쾅쾅
쾌변
쾌쾌
크런치
키론
킨더
킹왕
탐나
털리
토레
토핑
통로
투과
투싼
튀겨서
트인
트림
트립
트위
티커
파임
판다
판임
판대기
패이
패티
퍼펙
퍼퓸
펄럭
펴졌
펴질
편강
폐사
포개
폭주
풀무원
품귀
퓨즈
프라스
플렉
피오
한자
한태
한건
한심
핬는데
항균
항아리
해초
해논
해충
해파리
햅쌀
행이
헤이
헹궜
홈플러스
화딱지
황색
황성
후질근
휘어졌
흐른
흐려서
흘림
흠뻑
흥하
##버시
##버린
##고들
##지금
##아웃
##바리
##어우
##어져요
##이뻐
##가다
##가서
##가스
##가방
##자글
##하ㅏ
##하시
##하ㅣ
##네시아
##한번
##일단
##gt
##so
##sr
##us
##uv
##ㅅㅎ
##ㅅㅈ
##져야
##으니까
##나미
##파세요
##ㅓㅍ
##ㄴㅂ
##ㄴㄷㄴ
##퍼스
##유유
##우시
##스키
##ㅇㅍ
##ㅇㄷ
##ㅇㅌ
##러져
##러ㅓ
##저나
##오옹
##ㄱㅈ
##로운
##ㅗㅡ
##맛도
##트임
##보글
##간질
##릴께요
##히히
##제이
##무가
##얼음
##레트
##시계
##건조
##난다
##막지
##ㅋㅍㅌ
##누ㅜ
##누너
##달랑
##ㅕㅐ
##둘러
##디ㅡ
##디자인
##as
##소금
##같네요
##토리
##커즈
##그래요
##피부
##환불
##브라
##신경
##든가
##찮아요
##65
##없어요
##na
##민국
##놔서
##75
##ㅑㄴ
##ㅑㅑ
##ㅣㅏ
##양말
##크로
##탱이
##별루
##of
##kf
##올라
##걱정
##봐서
##봐요
##ㅆ어요
##bs
##케어
##넌트
##멀건
##코모
##ᆞㅅ
##웃음
##cd
##꼬불
##꼬박
##꾸깃
##녜요
##찌글
##밴드
##😂😂
##😡😡
##빤짝
지만은
사이클
아이보
감사용
보내왔
그래야
오래전
보이차
이런지
머리털
여름휴가
피부색
먼지털이
보여도
건조증
고무라
고무마개
그러저럭
바람구멍
부드러울
기름져
귀여우
붙여진
붙여져서
마시멜로
가벼움
허리띠
##라이즈
가루라
돌아와서
은지라
모자란
견고성
시킬까
내려갈
내려갑니다
부서집니다
음식점
커피숍
156
실리카
미끄러움
아야죠
관리자
가려질
망가집니다
주변인
내구력
눌러쓰
테이크
요리조리
안전히
안전장치
176
171
185
184
넘어짐
다녀온
무지막지
ㅜㅠㅜ
스트리
스트립
어두울
드라이브
어쩌구
라니깐
이뻐졌
번거로운
테이블보
괜찬음
공기구멍
이어진
대한민국
레이더스
필터링
그만한
알려줌
이름값
페이퍼
바라지
고르지
##ㄷㄱㅅ
뜯겨진
버린다
진한데
날카로움
친정아버지
거슬려서
55000
선명도
135
13000
다름없
물러지
물러져
##ㄷㅅㄷㄴ
나올까
나올까봐
삐뚤어지
남겨야
프라이버시
카페인
190
갈비뼈
날아간
놀이터
영양소
스위스
이만저만
ㅇㄴㅁ
으셨어요
떨어뜨려서
눈물나
찍혀요
바래서
정성스레
조개젓
다칠까봐
더러워질
걸레질
지켜서
부자재
수저통
프라다
조용히
미끌어지
입혀야
채워지
장식장
헷갈려서
괜춘하네요
삐그덕거리
대해선
헤어밴드
유니콘
삐걱대
##ㅅㄱㅅㄱ
##ㄴㄱㄴㄱ
##ㄷㅂㄷ
올리브유
주소지
##사이즈도
반신욕
450
45000
ㅜㅡㄴ
그려져
350
베이비파우더
드셔요
스포티지
자신감
##어어ㅓ
는데도요
낭패보
한철용
누런빛
전복죽
한달지
마카롱
비벼서
빨개졌
차가워서
비틀어져
##ㄴㅅㅇ
유치원생
터질까
부숴진
휘청거리
두루마리
쓸려면
일체감
시커매
주먹밥
어지러움
점심때
오디오
흘러나왔
라던데
##냄새가
원한다면
언젠데
브이넥
마땅히
모른다고
적립금
무서워하
반영구
아로마
압출기
##ㅇㄴㅍ
##상품감사합니다
즐거움
추출물
흐트러지
##조아요조아요
인도네시아
주무시
##ㅌㅊㅍ
soso
나뭇가지
도서관
이스라
태양광
꼬박꼬박
빤짝빤짝
으스러지
으스러져
👍👍👍👍
라바스
스니커즈
페퍼민트
##owow
수수료
얌전히
황토색
그늘막
무더운
진즉에
##베이터
멜로디언
천만다행
하세용
휴게소
##ㄴㅇㅀㄴㅇㅀ
hdmi
단기간
도드라져
올바른
게이밍
고만고만
밀기울
부재중
아일랜드
쫄쫄이
페트병
프렌치
간질간질
강원도
꾸깃꾸깃
비키니
엘리베이터
대성공
무제한
보글보글
부주의
빛바랜
셔틀콕
소보원
앙고라
웃겨요
월등히
으련만
자글자글
찌글찌글
감쪽같이
구연산
꼬불꼬불
므너므
자일리톨
프로젝트
하이브리드
DIY
ㆍ좋은상품감사합니다
네다섯
네스프레소
노폐물
눈꺼풀
닭꼬치
닭볶음탕
뒤통수
럭셔리
말레이시아
무응답
물올림
므느므
서프라이즈
선인장
소불고기
수증기
슬개골
시금치
어금니
엊그제
울고불
진딧물
커머스
커세어
코골이
킹왕짱
퍼펙트
3900
5900
86
92
LA
No
OE
So
bl
dl
htt
ok
otg
opp
pp
rc
̑̈
͙͙
ᄋᆢ
ᄋᆞ
ᆞㅅ
ᆞᆞ
ᆢ다
ᆢㅎ
ㄼㅈ
ㅆㄹㄱ
ㅇ리
ㅇᆢ
ㅇᆢㄷ
ㅍㅈ
ㅍㄴ
ㅍㄹ
ㅍㅌ
ㅏ어
ㅏ요
ㅏ나
ㅏㄱ
ㅐ요
ㅑㅕ
ㅓㅍ
ㅕㅗ
ㅗ티
ㅜ다
ㅜ아
ㅜ이
ㅜ그
ㅠ그
ㅡ배송
가졌
가느
가뜩
가랭이
갈릭
감이
감긴
감점
감상
갔었
강할
강매
개비
개량
개밥
갯가
거사
거위
거추장
건졌
걸쇠
검붉
게나
겨대
견인
계셨
고하
고감
고삿
골뱅이
공개
공예
과거
관람
관광
광목
광채
괜챃
교자
구기
구토
국가
국거리
굴젓
굴렀
궁합
궁중
궜는데
귀국
귀포
귀속
귀염
귓속
그네
그란
그간
그중
그놈
극대
금전
금일
금치
긍데
기로
기왕
깔린
꺾임
꼬여요
꼭대기
꽂혀서
꾸욱
끊임
끝날
끽끽
나고
나리
나유
나야
나원
나뿌
낚싯
난국
남잔데
내받
내시
내심
내주
냅니까
냐고요
넙적
네네
노후
녹인
녹쓴
놀리
놀림
농마
농부
놓여
놓쳐
놨으면
누비
누렁
눌어
눌르
뉴욕
는게
는답니다
는커녕
늡니다
능숙
니들
닙니당
다거
다진
다나
다량
다로
다상
다린
단도
단시
단것
달릴
달궈
당첨
대지
대게
대세
대주
대포
대봉
대롱
대왕
더디
던걸
덜해
덮이
데드
데일
도고
도리
도조
도식
도래
도코모
독촉
돈아
돌솥
동지
동반
동의
동양
된지
두근
두려
두둑
뒤엉
뒷정리
뒷모습
드릅
드가
드나
드래
드십니다
들보
들썩
들뜬
듭니
디딤
딤섬
딩시
땨마다
뗏다
뚜렷
뚫렸
라즈
라넌
라돈
라디오
랜즈
랭킹
러니
러진
런던
레오
레모
렌탈
로와
로워서
롤스크린
뢰벤
리색
리브
리베
리딩
릭터
마미
마더
마누
마린
막달
막혔
막무가
만난
만성
만한데
맘먹
맛본
망친
망은
맟추
맡아
매서
매추
머물
머슬
먹지
먹색
먹여서
먹혀요
메롱
명인
명백
모다
모트
모질
모험
모텔
모듬
모이스
모조리
목공
목구멍
목둘레
무기
무타
묵혔
묶이
문쪽
문턱
물이
물림
물가
물르
물체
물속
물린
물위
물청소
뭘까
미지
미경
민천
밀릴
밀키
밀린다고
밑반찬
바서
바쳐
바뻐서
박수
박사
박혔
반인
반숙
받쳐서
발급
발주
발립
방염
배정
배열
뱃속
뱔로
버프
버링
버즈
버건
버려도
번진
번질
벌릴
범한
베인
베페
베젤
변심
별미
별수
별말
보유
보디
보류
보딘
보쌈
복습
본다
볼려
봄맞이
봣을때
부려
부유
부을
부상
부준
부쳐서
불통
불사
불능
불평
블릿
비장
비어
비워
비색
비나
비만
비말
비좁
빈도
빌렸
빙글
빠직
빠뜨
빼줘야
뺴고
뽈록
뿐이
쁘네요
사워
사래
사셨
사흘
산석
살라
살포
상장
상호
상시
상점
상위
색인
색색
색별
샌디
생닭
생고기
샤넬
서야
서둘러
선정
설전
설레
성애
세금
소꿉
손전
솜사탕
송주
수퍼
수대
수작
수중
수랑
수취
숟갈
술집
숫가락
쉐프
스면
스패
스모
스레
스웨
스튜
스낵
스우시
슬픈
승모
시력
시내
시렵
시어서
식자재
신거
신형
신신
신박
실색
실루
실링
싸움
쌀통
쌀밥
쌀벌레
써놨
썻던거
씨제이
씻겼
아머
아누
아애
아냐
아낀
아넬
아웅
아녜요
안지
안드
안동
안티
안코
암게
암꽃
압정
앞판
앞바퀴
애착
애쓰
애교
앵두
야물
야구
야마나
양수
양모
양피
어림
어진
어주
어필
어쩝
어덯
억제
얼만
업자
업도
없음
엉겨
에유
에르
여져
여차
연식
연세
연령
연분
열심
영아
영가
옆트임
예리
예오
예뿐
오자
오색
오직
오이지
올까봐
완소
왕자
외직
요물
요우
요졸
우스
우로
우치
우양
원재
원할
월래
웠는데
웨이트
위드
유트
유무
유입
유약
율무
으고
으어
으이
은고
을래
음청
응해
의아
의식
의뢰
이터
이산
이론
이체
이날
이뤄
이베리
인바
인어
인걸
인스
일러
일월
일곱
임당
입미
자가
자숙
자식
자사
자랄
자시
자격
자충
자스민
작가
작정
잔털
잔광
잠자
잡쳤
장단
장중
장문
장말
장위
재기
재우
재시
재주
적축
전가
전통
전도
전해서
절구
점퍼
점막
정화
제통
제향
제풍
조기
조도
조국
조타
좀약
종말
주파
준다니
중가
중반
중화
중소
중급
중짜
중문
줗아요
줬었
즈인
즈네
지아
지는
지체
지살
지냈
진가
진회색
질겅
짬뽕
짭조
짱박혀
쨍쨍
쪼글
쪽가
쪽팔
쫄려
쫘악
쭈갑
찌끄러
찔릴
차주
차곡
찰나
찰옥
창안
챙겼
처가
천에
천차
천사
철저
청첩
체지방
쳐요
초면
초스
초특
초여름
총체
추어
추우
축소
충천
충성
취업
취할
치이
친한
친해
카피
카샤
카푸
칼갈이
캐리
캐슈
캐스트
캔들
커져
컸었
켜져
켜진
켯는대
코치
코발
콕콕
콤팩트
콸콸
퀄은
키작
타용
타나
타투
탁상
탄생
탄창
터서
토리
통밀
퇴출
투입
튀밥
트여
특템
틱하
파서
파하
파파
파도
파먹
파고들
팡팡
팰리
퍼서
퍼브
퍼짐
펀치
펀칭
페리
페시아
편치
평반
평발
폭리
폭염
퐁퐁
푸딩
품종
프라인
피사
피쳐
피복
피쉬
하려
하노
학가
한식
한파
한들
한상
한덩
한웅
할리스
합쳐
핬어요
항목
해다
해루
해머
해본
해롭
해얄
핸디
행구
행시
행운
햏는데
향료
허연
헙니다
헛구
헛웃음
현제
혜택
호완
호우
호과
호평
혹여
홍홍
확답
활어
횟감
효자
후배
후군
휘어질
흐를
흔치
흘려도
흰쌀
히사
히트
힘있
😍😍😍
##버터
##버릴
##버섯
##고당
##전골
##니디
##니깐
##다드
##리뷰
##아나
##아ㅓ
##아도
##장실
##장아찌
##어너
##구구
##착용
##용으로
##자자
##자반
##하려
##하는데
##ㅎㄷ
##추추
##감기
##일러
##쓰기
##기대
##ef
##ic
##sle
##hf
##hk
##ud
##ㅁㅂ
##해여
##조물
##정신
##더더
##차근
##차곡
##차례
##파티
##ㅓㅁ
##ㄴㆍ
##태기
##ㅠㅐ
##우리
##사고
##사지
##사진
##사항
##ㅇㆍ
##ㅇㄴㅇ
##러리
##란드
##란도
##비아
##비추
##터터
##야스
##라나
##라ㅣ
##ㄹㅅ
##ㄹㄹ
##ㄹㅂ
##ㄻㄴ
##언니
##ㄱㄹ
##로랑
##ㅏ아
##ㅗ해
##ㅗㅇ
##ㅗㅗ
##ㅗ채
##맛은
##도돌
##도독
##게임
##트머리
##간다
##었네요
##싸게
##받기
##너ㅜ
##르ㅗ
##은것
##영수증
##무새
##큼직
##만별
##모르
##시개
##시스
##시블
##시켰
##ma
##음에도
##매끈
##겠네요
##습니당
##디얇
##ay
##두개
##두부
##질겅
##부인
##편해요
##타리
##타타
##타월
##커리
##피드
##피그
##껍데기
##포드
##않고
##불룩
##상자
##🤍🤍
##연필
##79
##dsf
##았습니다
##ll
##살짝
##날짜
##느리
##느느
##생긴
##분들
##oi
##oo
##ox
##ore
##말이
##말라
##꺼운
##qsle
##처처
##젓가락
##wi
##MT
##햇는데
##풀이
##결국
##센터
##쪼글
##홍색
##😭😭
##넥스
##삿어요
##😀😀
지만요
주문서
ㅠㅠ다
ㅠㅠ어
ㅠㅠ이
ㅠㅠ근데
아주머니
그래선
ㅜㅜ너무
다고요
사진발
바로크
머리띠
##려고요
문제지
하루빨리
달라져요
다니깐
이용중
##너무좋아요
정리대
건조도
고무신
올라요
운동전
비싼가
지나갔
블랙베리
기름져서
일반인
보통이
아들내미
돌아갔
돌아와요
느껴져
모자챙
가슴골
부담감
번거럽
올리고당
내려간
내려올
올려둘
123
모기향
크림색
바꿔도
했었어요
157
미끄러진
종류별
냉장실
좋아함
시킨다는
약한데
가려짐
핸드백
떨어져도
보호기
버릴라
버릴랍니다
버릴까봐
그나저나
스크롤
눌러요
저녁때
만드실
구워진
넘어서
넘어감
넘어져서
부들거리
안심살
사라집니다
502
약해진
어두웠
가져간
가져갈
스러웠으나
밀리터리
따라했
따라올
포기김치
14000
이어주
염색물
재미없
뒤집기
뒤집혀
뒤집혀서
스킨로션
스킨케어
그만뒀
진작에
매운탕
헤드폰
헤드라이트
더워져
착한데
감자튀김
이름표
라이더
라이스
힘든가
##ㄷㄱㄷ
고속도
테스트로
멀쩡히
스테이
돌려주
붙인다고
조각나
##ㄷㅅㄷ
##ㄷㅅㅂ
따가울
머릿속
빠졌으면
체크무늬
남겼었
달랑거리
달랑달랑
날아다녀
놀이방
왠만해서
헐거워져서
보낼려고
##ㅈㄱㅅ
##ㅈㄱㄷ
소금물
설거지통
쓸모있
간지러웠
천연고무
최대치
물렁하
ㅇㄹㄴㅇㄹㄴㅇㄹ
잃어버린
형편없이
##♡♡♡♡
손님상
가정용
흔들흔들거리
##ㄹㅇㄹㅇ
##ㄹㅇㄴㄹ
준다는데
광택제
망설임
스탠다드
버티컬
소문내
박살난
오르골
##ㅜㅜㅜ
맛보기
스토리
형광펜
나쁜지
휴가철
부딪힌
부딪혀
부딪혔
부딪혀서
부탁드릴께요
물어봐야
매달리
큼직큼직
삼각형
삼각팬티
쵝오입니다
빨강이
소프트웨어
매끈매끈
려나요
허브티
씌워져
따끔따끔
작아져
스트레치
외국산
파티션
하네스
고등학생
고등학교
처박혀
키친타월
먹였어요
찢겨져서
펼쳐지
카라반
깜빡이
지정일
##ㄴㅅㄴㅅ
접혀져
뒤틀려서
클리닉
등산화
수면제
맡겨야
부적절
나마나
느니만
해줘야
된다면서
뾱뾱이에
뾱뾱이로
나간다고
살균기
##ㅈㄷㅎ
침구류
##ㅅㅇㅅ
##ㄷㄱㄷㄱㄷㄱㄷㄱ
영화관
##만족합니다
경화기
관계자
나아질
안개꽃
크리넥스
잡아당겼
어딘지
고쳐야
버벅거리
호호호
후회막급
비춰서
사다리차
드신다
모른다
현금영수증
##ina
바사삭
스케일
다른데요
허니콤
##반품하기
##별로임
바닷물
싱거웠
점착력
##123
그제야
리코타
생과일
해선지
##faw
맞물려서
기니피그
제게는
찜질방
플로팅
사시미
괜찬은듯
터무니없
끌어올리
두터운
명확히
배고파
서툴러서
안구건조
역겨워
##all
39000
못지않
아모스
조종기
무더위
열쇠고리
오로라
안타까워
냐면서
##ㅊㅇㅊㅇ
##잘쓸께요
##맘에들어요
삐져나와
삐져나온
웨이브
이주만
휘발유
아이언맨
과감히
내놔도
오드리
접대용
에너지
일으키
코르셋
ㅡㆍㅡ
귀요미
메리야스
바둑알
붙박이장
조물조물
태극기
##ㅂㅈㅇㅂㅈㅇ
china
분비물
서포트
수화물
연무기
코타키
틈틈히
프루프
걸리적거리
더부룩
디렉터
방사능
번짼가
아낌없이
야옹이
이태리
절취선
정중앙
차근차근
채집통
플렉시블
헤이즐
황성주
##ㅇㄴㅍㅇㄴㅍ
OEM
͙͙͙
가뜩이나
갯가재
끊임없이
눌어붙
디딤대
라즈베리
막무가내
샌디스크
손전등
스패너
승모근
시어서커
실루엣
안드로이드
어쩝니까
엉겨붙
원재료
이산화
이베리코
인바디
질겅질겅
짭조름
쪼글쪼글
쪽가위
차곡차곡
찰옥수수
천차만별
청첩장
초스피드
초특급
카푸치
코발트
헛구역
##qslek
안구건조증
01
09
87
8900
9000
BY
CS
CD
HU
JMT
LL
MM
RC
SD
UV
Xl
ad
by
cct
hg
ig
kc
md
nbr
rg
sm
sd
to
vr
̄̈
̆̎
̊̈
ᄋᆢㄷ
ᆞㄴ
ᆢㄴ
ㄳㄳ
ㄴ데
ㅂ니다
ㅃㅏ
ㅇ드
ㅇ노
ㅇ허
ㅇㄴㅇ
ㅇㄷㄴ
ㅊㄷ
ㅊㄹ
ㅌㅍ
ㅍㅊ
ㅍㅇ
ㅍㅋ
ㅏ용
ㅑㅎ
ㅑㅏ
ㅑㅗ
ㅓㅔ
ㅗㅠ
ㅗㄱ
ㅗㅑ
ㅛㅓ
ㅛㅕ
ㅛ는데
ㅜㅍ
ㅜㅁ
ㅜㅅ
ㅜ너
ㅠ어
ㅠ더
ㅠㅓ
ㅠㅐ
ㅠ잘
ㅠ내
ㅠ신
ㅠㅋㅋ
ㅠㅎㅎ
ㅠ좋아요
ㅠ다른
ㅠ냄새
ㅠ그래도
ㅡㅏ
ㆍㅈ
ㆍㅂ
ㆍ내
ㆍ너무
가미
가용
가네
가야
가벽
간접
갈림
갈일
갈증
갈께요
갈려고
갈립니다
감히
감귤
갑각
갑오
강성
강황
강렬
갖춘
갖춰
개근
개망
개안
개개
개성
개옴
개구리
객관
갯벌
거우
거반
거대
거금
거취
건너
건들이
겉껍질
게워
게으
게라
게딱지
겠지만
겠다는
견미리
결점
경미
경주
경쟁
경상도
고파
고비
고릴
고매
고농
고라도
고지도
고학년
고품질
곤지
곤색
골든
과메
관해
광천
광도
괜잖
괴로
교대
교화
구구
구메
구루
구현
구질
구녕
구린내
군살
군옥
굴려
귀한
그야
그렸
그릿
극세
극악
근거
근래
근본
금물
금지
금형
금침
급식
급했
급류
기용
기망
기세
기쁜
기질
기특
기온
기뻐
긴지
길고양이
김정
깅스
깉이
까르
까질
깝니다
깨닫
깽이
꼬지
꼬여
꼬락
꼬깃
꼬맹이
꼼꽁
꿧는데
꿰맸
끄트머리
끊이
끓인
끙끙
끼움
나니
나우
나발
나염
나풀
나몰
나쁠
난로
난처
난닝
날지
날릴
낭창
내추
내비
내새
내손
내버려
냅둬
냉큼
냐구
냐구요
너리
널부
넘버
넘긴
넘겼
네버
노고
노지
노동
노조
노르
노점
녹진
놀러
농산
놓아
놓친
놨던
누어
눈여
눈속
는개
늘려야
늘려도
늦가을
니버
니미
니글
니라
닏ㄱㆍ
다친
다질
다닥
다던
다죠
다룬
다져서
다홍색
닦인
단일
단조
단축
닫기
달러
달렸
닭새우
담수
담양
담군
당해
대변
대천
대파
대보
대금
댕겨
더나
더비
더불
더뎌
덜된
덜거덕
덧붙
데려
데친
데스
데치
덱스
덴트
도면
도료
도매
독거
독도
독립
돋보기
동구
동해
동부
됏네요
되돌
될런지
두레
둘까
둘러서
뒤편
뒤판
뒤처리
뒷날
뒷받침
드세
드렁
든게
들었
들였
디다
디카
따악
딱한
딴건
딴판
딸리
딸아
때워
때기
때마
때수건
땜질
떠오르
떨궈
떨려서
떼우
똑똑
똥색
뚜꺼운
뚫어
라마
라식
라파
라사
라규
래는
래나
래빗
랜지
랬는데
러스
러닝
레전
레어
레토
레인지
렌턴
렷다
로사
로제
로토
루아
루나
룩스
르네
리턴
리향
리핑
마마
마들
마을
마킹
마릿
마쇼
마테
막심
막힐
막둥이
만수
만이
만치
만원
만져서
맘마
맘껏
맙니다
맛봤
맜있
망한
망침
망칠
맞닿
맡긴
매요
매기
매해
맥반
맥심
맨질
맨바닥
머글
머기
멉니까
메달
메델
멜빵
면발
모리
모루
모스
모과
모야
모가지
모나미
목침
목도
몰드
몰랑
몽드
몽디
묘하
무판
무럭
무생
무채
무독
묵지
묵묵
문대
물대
물세
물살
물결
물세탁
물바다
뭉글
뭉특
뭉텅
미아
미색
미개
미래
미음
미채
민어
밀쉬
바고
바루
바우
바쁠
바스트
박자
반석
받자
발전
발랄
발포
발렌
발굽
발꿈치
밥통
방광
방역
방열
방구석
배리
배겨서
백수
백업
버니
버젓
버팀
번성
벌집
벌겋
범하
법인
벗겼
베르
별다
별러
별탈
별표
별생각
볍고
보아
보르
보소
복근
본지
볼드
볼일
볼꺼
볼거리
봉사
봉과
봉만
봉긋
봣을
봤으니
부어
부글
부가
부기
부패
부합
부쳤
부칠
부를
부푼
북유럽
분수
분진
분식
분노
분포
분발
불우
불스
불행
붕붕
브론
브라인드
비림
비자
비친
비게
비씨
비중
비울
비눗
비상시
비디오
빈집
빙어
빙빙
빠리
빨러
뿌요
뿌연
뿌려요
뿔테
쁘띠
사인
사나
사제
사모
사운
사상
사셔서
삭감
산패
산적
산사람
살수
살도
살피
살돈
살아요
살얼음
삼광
상식
상차
상없
색조
색사
색약
색다르
색연필
샌다
생파
생화
생상
생즙
생돈
생새우
샤시
샴페인
섀도우
서이
서려
서재
섭섭
성급
성향
세거
세유
세세
세벌
세알
셔링
셔셔
셨었
소근
소태
소양
소셜
소나무
속하
속임
속안
속여
속편
손품
손보
손길
솔리드
송문
쇳소리
쇼크
수다
수구
수족
수년
수차례
숙련
숭어
슈프
슈트
스미
스탑
스승
스르르
스르륵
슬러
슬픔
습네
승인
시아
시나
시모
시시
시누
시달
시음
시디
시소
시티
시꺼
식히
신통
신긴
신라면
신대서
실시
실종
심상
싰는데
싸여서
쌓인
쌥니다
쌩까
썻지만
쏘나타
쑤시
쓰인
쓰린
쓰려서
쓰지도
쓸까요
씁시다
씹하
씽씽
아다
아드
아후
아른
아시
아두
아날
아꼈
아하하
아아아아
안면
안막
안약
안찝
앏아
앙카
앞니
앞둔
앞발
액젓
앤데
야이
야식
야무
약했
얇디얇
양초
양반
양복
양털
어고
어기
어면
어만
어벙
어벤
어땠
어어오
억센
얻어먹
얼핏
엄처
없앨
엏는데
에구
엑셀
엔젤
엠블
엥간
여물
여져서
연유
연약
연예
열정
열나
엽산
였으며
였음에도
영글
영구
옆머리
오미
오용
오노
오링
오클
오션
온데
온종
온풍기
옮긴
와전
와치
완저
외곡
왼발
요용
요래
요만
용조
용후
용법
우루
우당
우렁
우중
우린
우쿨
울려요
워커
원물
원줄
원본
원숭
위요
위트
위시
유한
유동
유정
유라
유로
유료
유륜
유닉스
으휴
으뜸
으께요
으십니다
은감
음정
음각
의무
의해서
이네
이까
이르
이업
이직
이선
이민
이익
이윤
이쑤
인심
인라인
일인
일후
일향
일까봐
임파
임대
입국
입속
자구
자색
자작
자매
자부
자린
작이
잔뼈
잘근
잠글
잡다
잡이
장고
장되
재웠
재작
재입
재송
재킷
재사용
저어
저버리
적다
적음
적셔서
적어진
적외선
전번
전산
전투
전류
절망
점선
접한
정당
정치
정부
정했
정석
정렬
젖히
젛으
제니
제어
제네
제원
제눈
져라
졋는지
조조
조라
조청
조온
조준
족살
족족
졸이
졸졸
종합
좋이
죻아요
주가
주제
주렁
주광
주향
주꾸미
준수
중구
중임
줜나
줫으면
증거
증명
지이
지식
지오
지르
지먼
지운
지척
지출
지위
지겹
직사
진거
진안
진대
질려서
집서
집기
집사
집성
짜개
짧아
짱깨
쪄요
쪄도
쪼그
쪽발
쫒아
쯧쯧
찌릿
찍힐
차인
차감
차렸
착함
찬장
참여
채도
처러
처짐
척도
천일
천안
천국
청어
청경
청록
청포도
쳐진
쳐먹
쳐집니다
초미
초인
초초
초과
촌티
총장
촤르르
최곤
추요
추비
추리닝
출렁
충혈
치비
치크
치뤘
카지
카바
카나
카모
카츠
카트리
커리
커보
커뮤
컨셉
켯어요
코나
코바늘
콘서
콤프
콩콩
쿵쿵
큘러스
크다
크으
크래
크롭
큰맘
클랜
키리
타미
타워
타인
타도
타격
탄소
탈없이
태웠
태운
택시
탱크
터보
텃밭
템플러
토어
토이
토해
토프
톱니
통장
통시
투우
투두둑
퉁퉁
튀겼
튕기
트이
트기
트래
티저
파미
판판
팔다리
팥죽
팩스
팽이
팽창
퍼스
퍼런
페어
페라
페스트
편찮
편광
평과
평탄
포지
폭삭
표나
표백
풀스
풍뎅이
플렉스
피마
피시
피분
피죤
픽픽
핑키
하다
하우
하규
학기
한고
할만
함꼐
항도
항암
해유
해오
해복
해주
해했
해염
햇갈리
했으며
행잉
햤는데
향고
허기
허망
허름
헛돈
헝겊
헤진
헤매
헬리
혁명
협력
협의
협박
형지
형성
호도
혼란
홀딱
홀랑
홈파티
홍차
화제
화소
화농
화살
화날
확산
효고
후속
후두둑
훔쳐
휙휙
휠씬
휩니다
휼륭
흔드
흠흠
희색
희끗
👍🏼
👏👏
😄😄
##버렷
##미다
##미료
##고는
##고나
##고니아
##전자
##좋겟
##좋아여
##니어
##니티
##니ㅣ
##니데이
##다이
##다랗
##지대
##리티
##리칸
##리ㅏㅓ
##아게
##에프
##어가
##어른
##어난
##거래
##졌어요
##수도
##수준
##ㅜㄹ
##서걱
##이가
##이네
##이상
##가가
##하네
##하우
##하스
##하여
##하구요
##하세요
##호ㅓ
##ㅎㅍ
##색상
##는ㄷ
##는듯
##근무
##기에
##기서
##ㅡㅜ
##ㅡㄴ
##ㅡㅋ
##eu
##en
##eb
##sg
##hd
##hx
##hc
##ur
##통기
##ㅊㄹ
##ㅈ더
##져스
##마늘
##마음
##해동
##해보
##안맞
##더링
##더만
##빼기
##나고
##나사
##나발
##나갔
##차ㅏ
##재질
##ㄴㄼ
##퍼석
##유통기
##ㅠㅇ
##우드
##우추
##우웅
##후후
##사태
##스푼
##ㅇᆞ
##ㅇ극
##러ㅜ
##러ㅣ
##노아
##첨화
##저찌
##오ㅓ
##비지
##비실
##라는
##라마
##대야
##ㄹㅎ
##ㄹㄴㅁ
##ㄱㅎ
##ㄱㄴㄷ
##ㄱㅈㄷ
##ㄱㆍㄱ
##ㅏㅜ
##ㅐㅠ
##ㅐㅕ
##ㅗㅛ
##침대
##맛잇
##도어
##도도
##슬기
##링크
##세이드
##었어요
##었으면
##받음
##ㆍ요
##너트
##빠이
##빠른
##번째
##번쩍
##무강
##무라
##무럭
##모아
##모션
##할까
##산거
##잘근
##잘먹
##시트
##시켯
##건성
##mqslek
##난방
##35
##겠죠
##ㅕㅛ
##디ㅣ
##ai
##질까봐
##화채
##소박이
##먼트
##토스
##타치
##그래
##그브
##그런지
##그래서
##50
##의사
##상사
##카카
##써야
##써보
##집게
##끄덕
##티콘
##웨이
##둡니다
##13
##19
##빨라요
##킹파우더
##설명
##없음
##없네요
##ng
##76
##82
##yd
##ㅑㅕ
##fg
##fi
##dt
##랑땡
##ㅣㅓ
##계속
##맨질
##크네
##턴트
##창이
##삼일
##향기
##쇼ㅕ
##말로
##넉넉
##꺼끌
##kdj
##충전
##빛이
##눈이
##눈데
##wh
##wj
##xy
##빙글
##범벅
##ᆞㄷ
##cu
##꼬깃
##RT
##손잡이
##봅니다
##뭉치
##랭크
##😃😃
사용흔
ㅠㅠㅋ
ㅠㅠ배송
다른가요
괜찮아
아니요
아이고
ㅜㅜㅠ
ㅜㅜ빨
ㅜㅜ그래도
깔끔깔끔
엄청났
교환원
교환권
마음껏
##0000
해야할까
이상해
그리거
ㅡㅡ짜증
건데도
적당량
시원히
판매가
판매사
빨리빨리
머리핀
하루하루
101
신경질
듭니다요
자주색
보여줌
보여집니다
연결대
달라질
달라짐
다리통
걸렸으나
그랬었
##네요ㅜ
##네요ㅠㅠ
부러뜨
지워야
지워도
쓰레받기
기름종이
나무젓가락
붙여요
마리오
가벼울
돌아옴
어울렸
컬러풀
느껴진
모자른
모자를
흘러넘
스타즈
베이킹파우더
보냈으니
1234
움직였
실제론
모기약
프로모션
커피색
고리도
챙겨요
시킨다고
##어지고
책상다리
편안히
부드러워진
투명색
투명도
11000
손톱자국
던지요
얼음주머니
대체재
17000
186
어찌저찌
구워졌
넘어져
무지무지
안경다리
압축기
약해졌
그림자
으신지
된다며
된다더니
자연산
모델링
재고품
무거운지
계란말이
안내서
번거로움
잘라도
예상외
괜찬내요
심한데
재료비
간지럼
뒤집개
그만두
편해져요
누르기
갈아탈
234
할려는
그럴까
그럴듯
터진다고
바라진
타이핑
호박죽
호박엿
빠진다
보였으나
트리거
트리플
늘어납니다
보드게임
뜯어봐서
1300
돌려받
물러가
##ㄷㅅㅇ
##ㅎㅎㅎㅎ
##스러워
봐야겠습니다
떨어질까봐
심해져
걸려왔
초록빛
생긴다고
20000
ㅇㅇㅇㅇ
19000
돼지감자
날아갑니다
는다는데
는다더니
스피너
더욱이
보낼까
영양가
영양분
##ㅈㄱㄷㅅ
##ㅈㄱㄷㅂ
##ㅈㄱㄴㄼ
올릴까
버려진
사각지대
날라오
간지러울
공부방
놔두었
떨어뜨릴
동그래서
아랫면
아랫집
보일까
생산품
세련미
ㅇㄹㅇ
잃어버려
잃어버려도
화학제품
책임지
2015
느려졌
다칠까
신속히
더러워졌
치고는
아라크네
기억나
니트릴
이동도
관심없
가라아게
스탠딩
조그맣
채워야
채워도
채워져서
골라내
두드려
박살내
식당가
##ㅈㅂㄷ
장식품
그지없
롯데마트
아닐지
바꿀려고
수박화채
큰일나
##교환하기
ㅇㄱㄴ
흡입구
##하고싶
생수병
치우쳤
##ㄴㄱㅁ
4500
고마웠
뿌러지
35000
물놀이
바스켓
##sda
##sdsd
드셔도
##ㄷㅇㄷㅇ
틀린가
7500
찐득이
##ㅁㄴㅇㅎ
코코아
하구용
빨개져
포도주
집어던지
깜빡했
막혀요
뭉개졌
비틀어진
비틀어졌
쏟아졌
쏟아집니다
흑흑흑
피로도
👍🏻👍🏻
뜨거울
마라는
짝짝이
비빔국수
자유자재
직장인
뛰어넘
믿음직
최상급
##ㄴㄷㄹ
999
990
##ㅈㅇㅈㅇ
까다로워
아메리칸
어지러워서
살아났
자른다고
쭈꾸미가
쭈꾸미도
기어다니
오이소박이
흘러나온
을려는
집중력
버블티
어째서
어째요
480
바쁜데
버텨서
온다더니
이라던지
경화제
##ㄷㅅㄷㅅㄷㅅㄷㅅ
##dfg
남아돌
로지스
영업소
##ㅈㄴㅈㄴ
충실하
통일감
페브릭
플레이트
ㅇㆍ요
유자차
닥터지
이모티콘
계량스푼
달고나
스무스
xxl
보안경
아웃도어
피크닉
##ㅈㅂㅈㅂㅈㅂ
불러야
해준다고
아야지요
무서워해요
퀄러티가
습도계
온전히
계피차
물려받
즐거워요
히히히
##dkd
흐느적거리
그을리
부스스
##보내주
엄지손톱
##ㅁㄴㅇㅁㄴㅇㅁㄴㅇㅁㄴㅇ
bbb
맞춘다고
우편물
탁구대
른배송감사
새겨져
새겨진
이브랜드
작살나
컨트롤러
퍼석퍼석
스트로베리
ㅌㅌㅌ
머그잔
시어머님
장가서
괜찬은것
깊숙이
두터워서
렌트카
욯ㅎㅎㅎ
##ㅍㄴㅍㄴ
##1111
무작위
##그런가
다이아몬드
기달려
꺼끌꺼끌
끄덕끄덕
명태포
호흡기
지워진다는
브라질너트
낑낑대
낑낑거리
뜨개실
매끄러운
연보라색
일그러지
안타까운
흐트러져
녹아내리
돌고래
사물함
요양원
으으으
접어넣
주물럭
아무데나
올바름
입체감
짭쪼름
말라비틀어져
가해도
만하다
아녀요
접지력
##ㅣㄴ어
돌아다님
돌아다녔
나트륨
당사자
볼품없
재활용품
파타고니아
아름다운
서걱서걱
시드니
테크닉
해줄까
허여멀건
MDF
abc
광장히
꺼림칙
디즈니
모잘라
번쩍번쩍
새까맣
스펜서
스파이더
온습도
짓무르
후쿠오카
떨어져나간
집어던졌
그루트
금상첨화
나침판
뜬금없이
물비린내
사카린
시마노
여하튼
이오페
트위스트
테이크아웃
blog
구기자
나원참
낚싯대
뒤엉켜
빙글빙글
수작업
주파수
탄생석
팰리세이드
학가산
##시켰는데
##orea
그래선지
부딪혀도
코타키나발
카푸치노
코발트블루
BYC
cctv
갑각류
개망신
고릴라
과메기
김정문
까르보
꼬깃꼬깃
눈여겨
눈속임
들었었는데
디카페인
때마침
뚫어뻥
레전드
마들렌
만수무강
맥반석
맨질맨질
무럭무럭
무생채
별다를
별탈없이
보아하니
불스원
브론즈
슈프림
시꺼멓
아날로그
어벤져스
연예인
오미자
온종일
우당탕
우쿨렐레
원숭이
위시본
이쑤시개
잘근잘근
주광색
집성목
청경채
초미세
커보였
콘서트
화농성
##시켯는데
코타키나발루
